tree
version=v3
num_class=1
num_tree_per_iteration=1
label_index=0
max_feature_idx=37
objective=regression
feature_names=TID money_in yesterday_income_growth yesterday_growth_of_income_growth income_1_day_before income_2_day_before income_3_day_before income_4_day_before income_5_day_before income_6_day_before income_7_day_before income_8_day_before income_9_day_before income_10_day_before income_11_day_before income_12_day_before income_13_day_before income_14_day_before income_15_day_before income_16_day_before income_17_day_before income_18_day_before income_19_day_before income_20_day_before income_21_day_before income_22_day_before income_23_day_before income_24_day_before income_25_day_before income_26_day_before income_27_day_before income_28_day_before income_29_day_before income_30_day_before mean_income_all mean_income_last_30_days mean_income_last_7_days mean_income_last_3_days
feature_infos=[406136:699664] [0:2697000] [-2214000:2697000] [-4911000:2697000] [0:2697000] [0:2697000] [0:2697000] [0:2697000] [0:2697000] [0:2697000] [0:2697000] [0:2697000] [0:2697000] [0:2697000] [0:2697000] [0:2697000] [0:2697000] [0:2697000] [0:2697000] [0:2697000] [0:2697000] [0:2697000] [0:2697000] [0:2697000] [0:2697000] [0:2697000] [0:2697000] [0:2697000] [0:2697000] [0:2697000] [0:2697000] [0:2697000] [0:2697000] [0:2697000] [2274.7252747252742:734461.5384615385] [0:843500] [0:917142.85714285716] [0:1247000]
tree_sizes=2852 2872 2846 2847 2852 2862 2902 2872 2847 2874 2843 2870 2855 2850 2859 2849 2865 2842 2873 2827 2856 2857 2842 2841 2855 2819 2836 2872 2861 2817 2855 2829 2851 2863 2862 2832 2839

Tree=0
num_leaves=31
num_cat=0
split_feature=37 1 1 9 37 9 37 8 1 37 8 37 9 37 1 37 9 9 9 21 1 9 35 4 4 1 19 9 16 1
split_gain=6.70769e+13 2.52364e+13 1.77089e+13 9.75018e+12 4.26444e+12 3.68475e+12 3.42854e+12 2.44826e+12 1.8227e+12 1.78058e+12 1.16099e+12 1.00665e+12 8.30882e+11 7.91518e+11 7.53125e+11 6.86569e+11 6.76708e+11 6.29538e+11 5.46517e+11 5.00964e+11 4.80802e+11 4.65607e+11 4.5378e+11 4.17448e+11 3.73727e+11 3.19277e+11 3.05737e+11 2.8963e+11 2.76753e+11 2.76316e+11
threshold=83833.333333333358 316500.00000000006 45500.000000000007 133500.00000000003 29166.666666666668 582500.00000000012 59833.333333333336 188500.00000000003 111500.00000000001 109833.33333333336 344500.00000000006 1.0000000180025095e-35 214500.00000000003 42833.333333333336 316500.00000000006 144166.66666666672 55500.000000000007 73500.000000000015 20500.000000000004 312500.00000000006 133500.00000000003 77500.000000000015 80050.000000000015 144500.00000000003 745000.00000000012 396000.00000000006 160500.00000000003 91500.000000000015 257500.00000000003 65500.000000000007
decision_type=10 2 2 10 8 10 8 10 2 10 8 10 10 10 2 10 10 10 10 10 2 8 10 8 10 2 10 8 10 2
left_child=2 3 4 9 11 10 16 15 17 21 28 26 -9 -6 23 -5 -4 29 -13 -14 27 -2 -18 -10 -7 -12 -1 -11 -3 -8
right_child=1 5 6 7 13 24 8 12 14 20 25 18 19 -15 -16 -17 22 -19 -20 -21 -22 -23 -24 -25 -26 -27 -28 -29 -30 -31
leaf_value=56605.897404519288 58142.827064137928 69152.660039408525 55404.979173935375 63529.544062961431 54203.770553511895 111662.44296867143 56627.041621881093 68556.28167157367 60178.322455478068 59718.795591778129 85137.44289054643 52109.580611876045 73997.411723539029 55365.085033775649 80735.061841904317 66617.883347750976 56526.844314133799 58330.404036172964 53277.293755221479 89939.8239024512 64245.266221206446 60050.029551071115 64296.653072238449 64966.041645562233 128532.27055487833 99398.401862078957 69232.442646405805 62204.600485423798 84665.703770301858 57521.45340052971
leaf_weight=466 1625 23 14079 1475 15262 24 7086 491 625 606 20 11618 321 9536 21 1406 6855 5470 6119 21 965 6030 76 257 29 73 20 2069 23 6739
leaf_count=466 1625 23 14079 1475 15262 24 7086 491 625 606 20 11618 321 9536 21 1406 6855 5470 6119 21 965 6030 76 257 29 73 20 2069 23 6739
internal_value=56319.4 62433.3 55216 61972.5 53796.9 98458.3 56697.5 66417.3 57627.8 60511 89904 52635.5 71192.1 54650.4 62019 65036.7 55803.2 57422.3 52512.4 74976.3 62331.8 59645.2 56612 61573.4 120893 96331.5 57125.5 61641.5 76909.2 57063
internal_weight=0 15201 84229 15009 43021 192 41208 3714 20198 11295 139 18223 833 24798 903 2881 21010 19295 17737 342 3640 7655 6931 882 53 93 486 2675 46 13825
internal_count=99430 15201 84229 15009 43021 192 41208 3714 20198 11295 139 18223 833 24798 903 2881 21010 19295 17737 342 3640 7655 6931 882 53 93 486 2675 46 13825
is_linear=0
shrinkage=1


Tree=1
num_leaves=31
num_cat=0
split_feature=37 1 1 37 37 6 37 8 1 37 8 23 37 37 1 1 35 37 4 21 7 10 23 1 19 15 6 1 1 8
split_gain=5.44242e+13 2.0745e+13 1.35914e+13 8.4957e+12 3.02518e+12 2.91391e+12 2.85546e+12 2.15582e+12 1.48983e+12 1.07442e+12 9.09856e+11 7.73297e+11 7.6074e+11 7.57159e+11 6.0659e+11 5.13477e+11 4.45318e+11 3.8135e+11 3.78881e+11 3.72639e+11 3.69528e+11 3.66969e+11 3.36475e+11 3.08545e+11 2.47071e+11 2.36071e+11 2.32804e+11 2.28749e+11 2.25146e+11 2.22125e+11
threshold=81166.666666666672 316500.00000000006 43500.000000000007 125500.00000000001 31166.666666666668 582500.00000000012 57833.333333333336 162500.00000000003 111500.00000000001 104166.66666666667 344500.00000000006 245500.00000000003 1.0000000180025095e-35 20166.666666666668 316500.00000000006 68500.000000000015 74616.666666666672 46833.333333333336 111500.00000000001 292500.00000000006 45500.000000000007 193500.00000000003 112500.00000000001 85500.000000000015 160500.00000000003 800500.00000000012 276500.00000000006 155500.00000000003 497500.00000000006 101500.00000000001
decision_type=10 2 2 10 10 10 8 10 2 10 10 10 8 8 2 2 10 10 8 10 10 8 8 2 10 8 10 2 2 10
left_child=2 3 4 9 12 10 16 22 15 23 26 21 24 -14 18 -8 17 -4 -10 -13 -6 -9 -5 -2 -1 -7 -3 -24 -12 -11
right_child=1 5 6 7 20 25 8 11 14 29 28 19 13 -15 -16 -17 -18 -19 -20 -21 -22 -23 27 -25 -26 -27 -28 -29 -30 -31
leaf_value=270.59304401356684 2109.3715492758779 12499.013932291668 -1127.964301125402 4547.0451681277009 -1716.8585466973277 49616.142187500001 404.69387240066271 9546.1774120890514 2762.6073266323556 3861.8837901216598 32620.105653782895 16522.835408775252 -3825.4722860086204 -2626.0134041474694 21064.617617930537 1415.9012065472323 5450.0690636189784 -282.97030231121829 7015.1762899202922 31188.691443452379 -725.21559970828548 12693.293430714268 6740.7775985744538 3347.4663375142381 11621.755742187501 63465.604882812506 26157.049008413465 8906.6527109453764 42999.191003787884 5496.7653520128342
leaf_weight=465 3611 24 9615 518 12717 20 11977 961 483 1329 57 99 11302 9849 23 8647 120 12015 370 21 5334 603 1711 4548 20 32 26 682 33 2218
leaf_count=465 3611 24 9615 518 12717 20 11977 961 483 1329 57 99 11302 9849 23 8647 120 12015 370 21 5334 603 1711 4548 20 32 26 682 33 2218
internal_value=0 5246.4 -1043.31 4861.5 -2379.68 37925 182.971 8505.3 1000.22 3431.19 30417 11353.1 -3177.15 -3266.94 5039.32 828.662 -624.885 -658.588 4607.22 19089.4 -1423.83 10759.5 6857.84 2799.51 738.682 58138.9 19601.2 7358.05 36425.8 4884.2
internal_weight=0 16493 82937 16301 39687 192 43250 4595 21500 11706 140 1684 21636 21151 876 20624 21750 21630 853 120 18051 1564 2911 8159 485 52 50 2393 90 3547
internal_count=99430 16493 82937 16301 39687 192 43250 4595 21500 11706 140 1684 21636 21151 876 20624 21750 21630 853 120 18051 1564 2911 8159 485 52 50 2393 90 3547
is_linear=0
shrinkage=0.1


Tree=2
num_leaves=31
num_cat=0
split_feature=34 34 34 34 34 9 34 34 34 15 34 34 35 34 6 34 34 9 35 9 35 1 1 12 11 34 16 9 37 21
split_gain=5.41759e+13 2.01673e+13 1.48914e+13 6.83362e+12 2.92784e+12 2.90698e+12 2.28359e+12 1.10175e+12 1.02271e+12 9.51213e+11 4.79924e+11 3.63943e+11 3.40434e+11 3.24399e+11 2.73096e+11 2.1428e+11 2.05633e+11 1.96859e+11 1.80033e+11 1.73008e+11 1.68235e+11 1.35123e+11 1.52538e+11 1.3428e+11 1.31014e+11 1.12965e+11 1.10743e+11 1.60279e+11 1.14626e+11 1.08522e+11
threshold=83862.637362637368 252285.71428571432 42313.186813186818 133060.43956043958 60115.384615384624 672500.00000000012 23967.03296703297 105175.82417582419 171978.02197802201 373000.00000000006 70879.120879120892 51142.857142857152 150483.33333333337 33697.802197802208 532500.00000000012 14049.450549450552 120565.93406593408 214500.00000000003 113183.33333333336 172500.00000000003 245383.33333333334 396000.00000000006 240500.00000000003 87500.000000000015 57500.000000000007 95675.824175824164 72500.000000000015 97500.000000000015 58166.666666666679 303000.00000000006
decision_type=2 2 2 2 2 10 2 2 2 8 2 2 10 2 10 2 2 10 8 10 10 2 2 10 8 2 8 10 8 10
left_child=2 3 6 7 11 9 15 25 19 29 -6 -4 16 -8 21 -1 -9 -10 23 26 -7 22 -11 -18 -21 -2 27 -5 -28 -3
right_child=1 5 4 8 10 20 13 12 17 14 -12 -13 -14 -15 -16 -17 18 -19 -20 24 -22 -23 -24 -25 -26 -27 28 -29 -30 -31
leaf_value=-3854.9456132447808 2761.6736942128105 18252.415161132812 -800.56080590155625 -1736.4074510054154 737.40876029399567 60649.926358695659 -2270.9883849880252 4551.8789458132651 10556.524343854639 33322.603437500002 1761.7770959101495 -80.03319878871325 -2925.6067880306605 -1515.3563139635155 42206.073689778648 -3084.7906899493946 16853.303328450522 13540.647745824353 5723.4901495007098 17419.041309814453 48270.192782738101 33405.91908389821 22048.070104166669 7863.4908067491315 9110.6926039172758 3628.757593299435 14892.890351562499 8119.5064453125005 7276.7955230895914 24686.019691506412
leaf_weight=7076 4758 80 14396 33 11041 23 10370 2562 930 20 7808 13664 53 12566 24 7381 24 290 1821 20 21 68 30 54 372 2196 20 33 1657 39
leaf_count=7076 4758 80 14396 33 11041 23 10370 2562 930 20 7808 13664 53 12566 24 7381 24 290 1821 20 21 68 30 54 372 2196 20 33 1657 39
internal_value=0 5510.27 -988.818 4986.53 197.814 30964 -2477.43 3825.19 8956.2 26955.5 1161.74 -449.695 5041.75 -1857 32482 -3461.74 5136.4 11265.9 5925 7636.4 54741.4 30504.2 26557.9 10629.6 9534.59 3035.49 7209.5 3191.55 7367.63 20360.9
internal_weight=0 15128 84302 14823 46909 305 37393 11468 3355 261 18849 28060 4514 22936 142 14457 4461 1220 1899 2135 44 118 50 78 392 6954 1743 66 1677 119
internal_count=99430 15128 84302 14823 46909 305 37393 11468 3355 261 18849 28060 4514 22936 142 14457 4461 1220 1899 2135 44 118 50 78 392 6954 1743 66 1677 119
is_linear=0
shrinkage=0.1


Tree=3
num_leaves=31
num_cat=0
split_feature=34 34 34 34 9 34 34 34 34 15 34 35 34 34 6 34 9 0 34 33 9 34 6 12 9 16 9 35 35 0
split_gain=4.39961e+13 1.72169e+13 1.01539e+13 7.13142e+12 2.35466e+12 1.76962e+12 1.5475e+12 1.16404e+12 1.08889e+12 7.70482e+11 2.6254e+11 2.47319e+11 2.35357e+11 2.28597e+11 2.21208e+11 2.16317e+11 1.76034e+11 1.67345e+11 1.57486e+11 1.52098e+11 1.38108e+11 1.33426e+11 1.33362e+11 1.32707e+11 1.05152e+11 9.98648e+10 1.09007e+11 9.34613e+10 9.05607e+10 8.02228e+10
threshold=76483.516483516505 252285.71428571432 40428.571428571442 128813.18681318681 672500.00000000012 56357.142857142862 21983.516483516487 99912.087912087925 158895.60439560443 373000.00000000006 67423.076923076951 150483.33333333337 48252.747252747264 31840.659340659342 532500.00000000012 200807.69230769234 122500.00000000001 634541.00000000012 87912.087912087925 515000.00000000006 173500.00000000003 12170.329670329673 396000.00000000006 71500.000000000015 173500.00000000003 78500.000000000015 42500.000000000007 150483.33333333337 117550.00000000001 677542.00000000012
decision_type=2 2 2 2 10 2 2 2 2 8 2 10 2 2 10 2 10 2 2 10 10 2 8 8 8 8 10 8 8 2
left_child=2 3 6 7 9 12 21 18 20 -3 -7 16 -4 -8 17 27 -9 -11 -2 -6 25 -1 -19 -22 -17 26 -5 -10 -27 -13
right_child=1 4 5 8 19 10 13 11 15 14 -12 29 -14 -15 -16 24 -18 22 -20 -21 23 -23 -24 -25 -26 28 -28 -29 -30 -31
leaf_value=-3579.8592577559971 1963.2252561607738 18324.816858115319 -879.47954625730915 -3273.540594482422 54634.444856770839 400.87634596211888 -2164.5210430498969 3860.1377594033897 15239.9833125 21534.548874080883 1174.7197283496246 -7251.327237215909 -282.10688892466123 -1504.2708464254401 37985.465763346358 5337.9204148065473 5184.5843808330246 35800.865519831736 2773.9856650361007 42826.672812500008 15571.642197926842 -2927.4902706978451 27181.893002424571 7797.4375009226251 12671.062493122801 10214.375083705358 4824.549433270623 9062.0699508449925 6137.4076717145399 644.44387600806454
leaf_weight=5185 5917 119 13664 22 24 12871 9577 3550 25 34 6649 22 12749 11590 24 21 1399 26 4026 20 24 7930 58 258 284 56 68 1195 2012 31
leaf_count=5185 5917 119 13664 22 24 12871 9577 3550 25 34 6649 22 12749 11590 24 21 1399 26 4026 20 24 7930 58 258 284 56 68 1195 2012 31
internal_value=0 4297.9 -1029.53 3917.74 27867.6 -57.549 -2331.86 2917.47 7687.98 24260 664.467 4161.77 -591.14 -1803 29233.8 9784.16 4234.54 27453.8 2291.51 49267.3 6377.86 -3185.4 29849.7 8459.07 12166.2 6105.89 2845.02 9188.67 6247.81 -2633.05
internal_weight=0 19215 80215 18910 305 45933 34282 14945 3965 261 19520 5002 26413 21167 142 1525 4949 118 9943 44 2440 13115 84 282 305 2158 90 1220 2068 53
internal_count=99430 19215 80215 18910 305 45933 34282 14945 3965 261 19520 5002 26413 21167 142 1525 4949 118 9943 44 2440 13115 84 282 305 2158 90 1220 2068 53
is_linear=0
shrinkage=0.1


Tree=4
num_leaves=31
num_cat=0
split_feature=34 34 34 34 4 34 34 34 34 15 16 1 35 34 0 29 34 34 34 34 9 34 4 10 35 16 9 9 16 35
split_gain=3.56368e+13 1.39457e+13 8.22817e+12 5.80353e+12 2.02251e+12 1.35585e+12 1.33632e+12 9.83318e+11 8.34695e+11 6.03224e+11 3.52348e+11 2.47286e+11 2.2256e+11 2.13978e+11 2.04317e+11 2.05856e+11 1.8426e+11 1.75217e+11 1.75161e+11 1.6617e+11 1.38332e+11 1.30531e+11 1.26261e+11 1.18805e+11 9.5453e+10 8.87537e+10 1.06085e+11 8.76123e+10 8.68919e+10 7.57036e+10
threshold=76483.516483516505 252285.71428571432 41401.098901098907 126521.97802197804 641500.00000000012 23291.208791208792 56357.142857142862 158895.60439560443 95675.824175824164 373000.00000000006 860000.00000000012 497500.00000000006 150483.33333333337 66554.94505494507 634541.00000000012 549500.00000000012 33697.802197802208 200807.69230769234 111313.18681318683 48697.802197802208 173500.00000000003 15302.197802197805 57500.000000000007 573500.00000000012 115150.00000000001 85500.000000000015 97500.000000000015 88500.000000000015 174500.00000000003 150483.33333333337
decision_type=2 2 2 2 10 2 2 2 2 8 8 2 10 2 2 8 2 2 2 2 10 2 10 8 8 8 10 10 8 8
left_child=2 3 5 8 9 21 19 20 27 -3 -6 14 18 -8 -11 -16 -7 29 -10 -4 24 -1 -22 -13 -5 26 -26 -2 -19 -9
right_child=1 4 6 7 10 16 13 17 12 11 -12 23 -14 -15 15 -17 -18 28 -20 -21 22 -23 -24 -25 25 -27 -28 -29 -30 -31
leaf_value=-3095.9052531835259 1723.7569055561407 16261.972056123132 -749.78609396092224 8691.9370605468757 35705.552625000004 -1855.2970049636058 339.84709657552321 13715.984781250001 3073.1134734611769 16210.434915364584 52855.892866847833 26980.634205563863 -6526.1944424715912 1022.6185982444069 19636.688440393522 31187.671875 -1271.0641775781814 4895.8326105291189 4185.9195453257562 -234.90757274326972 14411.226341796877 -2478.854433546021 7011.5130923081733 37038.269836956526 -675.9620548530861 5400.4009050430132 5433.5658060709638 2373.1117242774803 11420.148220102696 8155.8629480363543
leaf_weight=7930 5509 117 13176 84 25 10858 12139 25 3294 30 23 24 22 7381 27 36 10736 22 2479 11956 25 6039 297 23 54 2225 60 3336 283 1195
leaf_count=7930 5509 117 13176 84 25 10858 12139 25 3294 30 23 24 22 7381 27 36 10736 22 2479 11956 25 6039 297 23 54 2225 60 3336 283 1195
internal_value=0 3868.11 -926.581 3525.97 25080.8 -2061.45 -22.7176 6769.79 2579.85 21561.6 43923.4 25990.5 3512.71 598.02 23002.8 26237.3 -1564.83 8805.75 3550.97 -504.844 5638.7 -2829.15 7586.02 31902.5 5379.91 5260.97 2539.58 1968.67 10949.5 8269.8
internal_weight=0 19215 80215 18910 305 35563 44652 4270 14640 257 48 140 5795 19520 93 63 21594 1525 5773 25132 2745 13969 322 47 2423 2339 114 8845 305 1220
internal_count=99430 19215 80215 18910 305 35563 44652 4270 14640 257 48 140 5795 19520 93 63 21594 1525 5773 25132 2745 13969 322 47 2423 2339 114 8845 305 1220
is_linear=0
shrinkage=0.1


Tree=5
num_leaves=31
num_cat=0
split_feature=34 34 34 34 4 34 34 34 7 34 30 16 4 34 35 34 34 34 11 12 16 7 16 35 28 30 34 27 34 1
split_gain=2.89294e+13 1.06447e+13 8.08927e+12 3.59033e+12 1.63823e+12 1.4923e+12 1.36915e+12 6.35416e+11 5.29671e+11 4.59531e+11 2.91039e+11 2.85402e+11 2.49447e+11 2.09712e+11 2.05595e+11 1.98299e+11 1.69182e+11 1.63841e+11 1.16422e+11 1.76937e+11 1.07984e+11 1.07972e+11 9.89936e+10 8.78567e+10 1.63335e+11 8.4486e+10 7.82559e+10 8.19794e+10 7.11655e+10 6.56229e+10
threshold=84983.516483516505 252285.71428571432 44659.340659340676 135483.51648351652 641500.00000000012 26313.186813186818 61923.076923076929 108791.20879120882 373000.00000000006 171978.02197802201 361500.00000000006 860000.00000000012 207500.00000000003 72461.538461538483 157100.00000000003 35324.175824175829 52807.692307692312 16384.615384615387 1.0000000180025095e-35 92500.000000000015 214500.00000000003 546500.00000000012 259500.00000000003 103383.33333333336 118500.00000000001 93500.000000000015 120565.93406593408 174500.00000000003 95675.824175824164 294000.00000000006
decision_type=2 2 2 2 10 2 2 2 10 2 8 8 10 2 10 2 2 2 8 10 10 10 8 8 10 8 2 10 2 2
left_child=2 3 5 7 8 17 16 28 12 18 -10 -6 -3 -8 23 -7 -4 -1 19 -5 -11 -12 -14 24 -9 -20 -25 -28 -2 -24
right_child=1 4 6 9 11 15 13 14 10 20 21 -13 22 -15 -16 -17 -18 -19 25 -21 -22 -23 29 26 -26 -27 27 -29 -30 -31
leaf_value=-2754.1800250198426 2067.8722801423028 25785.786011904765 -454.97364426944796 17782.108437500003 32134.997187500001 -1555.6933145907033 645.69466004508922 4842.5646187598559 14070.437675781252 7769.568697117531 25488.868542480472 47570.304211956529 9493.0208213588176 1358.8404832365916 -2368.7675518329329 -987.72881177092063 51.503063828760588 -2114.6005947199155 2153.9878501443304 5372.3989583333341 10103.831885550013 33906.518671874997 13122.672225765305 3377.2558859542078 13955.240201822917 5748.0162455567115 4397.4234560414179 1095.0249330178285 2704.3360591741207 18324.968507893882
leaf_weight=8845 4392 21 13664 20 25 10797 10004 109 20 971 64 23 35 7015 52 14274 12749 7320 68 27 249 20 49 1752 24 1715 2072 78 2928 48
leaf_count=8845 4392 21 13664 20 25 10797 10004 109 20 971 64 23 35 7015 52 14274 12749 7320 68 27 249 20 49 1752 24 1715 2072 78 2928 48
internal_value=0 4085.06 -712.236 3695.02 22572.7 -1715.38 240.183 2880.14 19405.4 6742.66 24911.8 39531.1 15662.5 939.644 3878.99 -1232.33 -210.508 -2464.56 5740.45 10653.1 8245.99 27493.1 14052 3959.5 6486.96 5610.95 3873.35 4277.62 2322.46 15697
internal_weight=0 14762 84668 14457 305 41236 43432 11407 257 3050 104 48 153 17019 4087 25071 26413 16165 1830 47 1220 84 132 4035 133 1783 3902 2150 7320 97
internal_count=99430 14762 84668 14457 305 41236 43432 11407 257 3050 104 48 153 17019 4087 25071 26413 16165 1830 47 1220 84 132 4035 133 1783 3902 2150 7320 97
is_linear=0
shrinkage=0.1


Tree=6
num_leaves=31
num_cat=0
split_feature=36 36 36 9 9 5 37 36 36 4 9 4 36 9 23 16 9 4 19 5 9 16 2 4 36 37 8 14 23 37
split_gain=1.9069e+13 7.13798e+12 5.71775e+12 2.22122e+12 1.32792e+12 1.31372e+12 9.53174e+11 8.97048e+11 6.97112e+11 5.45127e+11 3.84825e+11 3.85235e+11 3.5058e+11 3.4479e+11 3.06843e+11 2.11046e+11 1.94461e+11 1.76731e+11 1.60429e+11 1.55786e+11 1.52782e+11 1.26328e+11 1.1639e+11 2.03532e+11 1.13095e+11 1.06613e+11 1.00578e+11 9.91114e+10 9.56442e+10 1.04525e+11
threshold=87357.142857142884 265285.71428571438 44785.714285714297 123500.00000000001 582500.00000000012 61500.000000000007 248333.33333333334 25500.000000000004 165642.85714285719 125500.00000000001 59500.000000000007 32500.000000000004 1.0000000180025095e-35 68500.000000000015 338000.00000000006 104500.00000000001 222500.00000000003 745000.00000000012 126500.00000000001 177500.00000000003 33500.000000000007 160500.00000000003 197500.00000000003 88500.000000000015 14071.428571428574 1.0000000180025095e-35 69500.000000000015 258500.00000000003 85500.000000000015 129500.00000000001
decision_type=10 10 8 10 10 10 10 10 10 10 10 8 10 8 8 8 10 10 10 10 10 10 8 10 10 8 10 10 8 10
left_child=2 3 7 15 14 10 9 12 21 13 11 25 18 -7 -3 28 -10 -6 -1 -11 -9 -5 -13 -24 -14 -4 -12 -16 29 -2
right_child=1 4 5 8 17 6 -8 20 16 19 26 22 24 -15 27 -17 -18 -19 -20 -21 -22 -23 23 -25 -26 -27 -28 -29 -30 -31
leaf_value=807.87321231256385 1273.5192668150983 11926.10956824934 2709.8238572505484 4003.5271013665097 28893.296028645833 225.5198695454587 19918.156735464247 -1407.219914333315 6382.4842666885825 3093.4453940191938 174.73852707850733 -399.74826544235952 -2472.1052674923576 1063.1159399245819 14269.207198660713 2849.2335897718917 9376.28970656622 40587.57275390625 9921.1397844587063 7331.1944067987906 -861.11107757765296 5696.6919048352838 -10.30791171122905 2670.4613184802938 -1907.4600907240429 -1661.0115293439803 1048.7587722194705 21940.978764361214 2101.5935894428039 -2686.3758383307659
leaf_weight=241 1090 71 57 2716 24 9060 26 8389 1057 344 5271 17718 6271 10741 21 3588 273 28 21 116 13158 526 2589 318 8167 2664 1755 85 2974 71
leaf_count=241 1090 71 57 2716 24 9060 26 8389 1057 344 5271 17718 6271 10741 21 3588 273 28 21 116 13158 526 2589 318 8167 2664 1755 85 2974 71
internal_value=0 3648.03 -525.717 3322.22 21141 160.396 783.486 -1484.63 5069.13 758.931 -255.797 -451.071 -2086.92 679.872 17013.5 2288.05 6997 35190.2 1538.33 4162.1 -1073.73 4278.24 -303.526 282.944 -2152.71 -1569.45 393.057 20421.1 1801.1 1031.36
internal_weight=0 12524 86906 12295 229 50659 20287 36247 4572 20261 30372 23346 14700 19801 177 7723 1330 52 262 460 21547 3242 20625 2907 14438 2721 7026 106 4135 1161
internal_count=99430 12524 86906 12295 229 50659 20287 36247 4572 20261 30372 23346 14700 19801 177 7723 1330 52 262 460 21547 3242 20625 2907 14438 2721 7026 106 4135 1161
is_linear=0
shrinkage=0.1


Tree=7
num_leaves=31
num_cat=0
split_feature=34 34 34 34 4 34 34 34 9 21 23 16 34 34 34 34 23 28 4 34 8 34 12 22 34 37 9 33 15 37
split_gain=1.94704e+13 7.54938e+12 4.50505e+12 3.22814e+12 1.13387e+12 9.27717e+11 5.51938e+11 4.99555e+11 4.77216e+11 4.09746e+11 1.77932e+11 1.77353e+11 1.5082e+11 1.27051e+11 1.22788e+11 1.1724e+11 1.80169e+11 1.07832e+11 1.04867e+11 8.53471e+10 8.1751e+10 7.72228e+10 7.1187e+10 7.05542e+10 5.84541e+10 5.83555e+10 5.81276e+10 6.29728e+10 7.1686e+10 5.4501e+10
threshold=76483.516483516505 252285.71428571432 37868.131868131873 128813.18681318681 641500.00000000012 54752.747252747264 20236.26373626374 101494.50549450552 173500.00000000003 461500.00000000006 282500.00000000006 860000.00000000012 67664.835164835167 187060.43956043958 45978.021978021985 145791.20879120883 25500.000000000004 517000.00000000006 207500.00000000003 29296.703296703301 344500.00000000006 85637.362637362647 134500.00000000003 227500.00000000003 10005.494505494507 33500.000000000007 119500.00000000001 154500.00000000003 168500.00000000003 87166.666666666672
decision_type=2 2 2 2 8 2 2 2 10 10 8 8 2 2 2 2 8 10 10 2 10 2 10 10 2 8 8 10 10 10
left_child=2 3 6 7 9 14 24 21 15 10 -3 -6 25 23 -4 -5 -17 -11 -12 -8 -20 -2 -18 -10 -1 -7 -9 -28 -29 -27
right_child=1 4 5 8 11 12 19 26 13 17 18 -13 -14 -15 -16 16 22 -19 20 -21 -22 -23 -24 -25 -26 29 27 28 -30 -31
leaf_value=-2545.9193996101758 1254.5898664314388 8374.3762446384808 -702.81703671562832 3795.5546859474453 25639.822234375002 1801.5272805970289 -1543.1007599924667 2478.1197694042444 5806.8791069907711 19785.336173930922 21972.359843750004 37227.799916294643 807.94152943571817 8096.64358879462 -279.53035692974686 -2201.9141220555161 6246.1339929477799 28714.232366071428 12075.399881228885 -1115.2973430174011 17374.350649007163 1803.140250861914 4718.5369692438635 11558.729616477272 -2037.7867313963686 226.92106586380703 3323.871860096574 2365.9018311966297 -3383.435516567888 -1320.8065887517228
leaf_weight=3050 4819 51 12932 1430 25 232 8174 2563 696 38 20 28 6283 471 14579 33 482 21 74 10858 48 5490 831 22 8784 15092 1958 86 29 231
leaf_count=3050 4819 51 12932 1430 25 232 8174 2563 696 38 20 28 6283 471 14579 33 482 21 74 10858 48 5490 831 22 8784 15092 1958 86 29 231
internal_value=0 2859.14 -684.89 2607.41 18466.6 -92.2058 -1632.48 1934.43 5144.04 15670.4 13440.9 31761.8 394.443 6820.35 -478.503 4426.05 5095.9 22963.4 15260.5 -1299.03 14160.2 1546.72 5279.32 5983.12 -2168.75 227.421 2796.57 3190.3 916.069 203.588
internal_weight=0 19215 80215 18910 305 49349 30866 14945 3965 252 193 53 21838 1189 27511 2776 1346 59 142 19032 122 10309 1313 718 11834 15555 4636 2073 115 15323
internal_count=99430 19215 80215 18910 305 49349 30866 14945 3965 252 193 53 21838 1189 27511 2776 1346 59 142 19032 122 10309 1313 718 11834 15555 4636 2073 115 15323
is_linear=0
shrinkage=0.1


Tree=8
num_leaves=31
num_cat=0
split_feature=34 34 34 34 1 34 34 34 34 5 15 35 34 11 5 34 11 34 34 35 8 35 19 1 15 35 15 34 19 34
split_gain=1.5774e+13 6.1628e+12 3.54612e+12 2.71853e+12 9.06036e+11 5.95849e+11 5.56737e+11 4.45624e+11 3.83687e+11 2.5648e+11 2.40635e+11 1.58573e+11 1.2872e+11 1.19821e+11 1.14614e+11 9.87783e+10 9.48245e+10 9.14313e+10 7.22985e+10 6.82665e+10 7.0045e+10 6.66555e+10 6.54323e+10 8.41446e+10 6.29993e+10 5.92077e+10 5.91843e+10 5.6838e+10 5.89979e+10 5.66882e+10
threshold=75104.395604395613 252285.71428571432 40428.571428571442 126521.97802197804 590500.00000000012 59532.967032967041 20576.923076923082 158895.60439560443 98329.670329670349 788000.00000000012 373000.00000000006 150483.33333333337 49741.758241758253 489000.00000000006 42500.000000000007 30445.054945054948 58500.000000000007 200807.69230769234 115593.4065934066 115150.00000000001 71500.000000000015 150483.33333333337 470500.00000000006 294000.00000000006 187500.00000000003 85816.666666666672 58500.000000000007 85637.362637362647 32500.000000000004 145791.20879120883
decision_type=2 2 2 2 2 2 2 2 2 8 8 10 2 10 8 2 10 2 2 8 8 8 8 2 10 10 10 2 8 2
left_child=2 3 6 8 10 12 -1 14 27 -6 -3 18 -4 22 16 -8 -5 21 -10 -16 26 -9 -12 -24 -20 -7 -21 28 -2 -22
right_child=1 4 5 7 9 25 15 17 11 -11 13 -13 -14 -15 19 -17 -18 -19 24 20 29 -23 23 -25 -26 -27 -28 -29 -30 -31
leaf_value=-1938.0188449095499 2599.5379092250419 10715.28594453456 -497.70491209770682 11922.333937230604 20742.00377242477 486.48684433658718 -1349.8810640973245 10621.194796875001 2149.2598146117812 34073.476516822084 19305.674392361114 -6083.3523970170463 -85.907748471571637 22058.435615808823 6481.9202437589811 -919.69292346098609 5107.5868175561882 7446.591547251217 3071.3753789451403 -1955.2348960318218 3318.2435630570808 5403.9153555310622 9282.5789760044645 16430.153254394532 89.767005549250428 -2311.8697856702306 2957.7637974973586 1578.686529051 1036.4348629941667 4336.2556550412064
leaf_weight=12261 253 118 15982 29 27 14686 9089 25 3294 31 27 22 14457 34 82 12932 69 305 1673 41 1643 1195 28 40 74 76 61 4758 5298 820
leaf_count=12261 253 118 15982 29 27 14686 9089 25 3294 31 27 22 14457 34 82 12932 69 305 1673 41 1643 1195 28 40 74 76 61 4758 5298 820
internal_value=0 2514.26 -630.978 2295.23 16619.9 -49.2787 -1397.95 4527.39 1675.19 27867.4 13978.8 2388.09 -302.122 16964 3765.96 -1097.25 7124.2 5897.98 2425.06 3641.62 3550.82 5510.83 15140.8 13487 2945.08 472.08 982.931 1325.07 1107.68 3657.17
internal_weight=0 19947 79483 19642 305 45201 34282 4270 15372 58 247 5063 30439 129 2745 22021 98 1525 5041 2647 2565 1220 95 68 1747 14762 102 10309 5551 2463
internal_count=99430 19947 79483 19642 305 45201 34282 4270 15372 58 247 5063 30439 129 2745 22021 98 1525 5041 2647 2565 1220 95 68 1747 14762 102 10309 5551 2463
is_linear=0
shrinkage=0.1


Tree=9
num_leaves=31
num_cat=0
split_feature=34 34 34 34 4 34 34 34 9 7 35 23 16 22 34 4 16 7 34 35 37 34 23 34 34 35 28 35 9 16
split_gain=1.27855e+13 4.81973e+12 3.27258e+12 1.88733e+12 7.84362e+11 5.83662e+11 5.43728e+11 3.32698e+11 2.65156e+11 2.64868e+11 1.54048e+11 1.44672e+11 1.35815e+11 9.66737e+10 8.92112e+10 8.74921e+10 8.72338e+10 8.55881e+10 8.46082e+10 7.90531e+10 7.83828e+10 7.74595e+10 7.53249e+10 7.29614e+10 7.23906e+10 6.84245e+10 1.40364e+11 6.73163e+10 6.33774e+10 6.32421e+10
threshold=80351.648351648371 252285.71428571432 43461.538461538468 133060.43956043958 641500.00000000012 25796.703296703297 60978.021978021985 106637.36263736265 173500.00000000003 373000.00000000006 145383.33333333334 396000.00000000006 860000.00000000012 266500.00000000006 187060.43956043958 225500.00000000003 1.0000000180025095e-35 546500.00000000012 11692.307692307693 121683.33333333336 36833.333333333336 35324.175824175829 117500.00000000001 51846.153846153851 68505.494505494527 103383.33333333336 118500.00000000001 85816.666666666672 85500.000000000015 259500.00000000003
decision_type=2 2 2 2 8 2 2 2 10 10 10 8 8 10 2 10 8 10 2 8 8 2 8 2 2 8 10 10 8 8
left_child=2 3 5 7 9 18 23 28 16 15 25 -11 -6 14 -10 -3 22 -13 -1 -18 -8 -7 -5 -4 -22 26 -9 -26 -2 -17
right_child=1 4 6 8 12 21 20 10 13 11 -12 17 -14 -15 -16 29 19 -19 -20 -21 24 -23 -24 -25 27 -27 -28 -29 -30 -31
leaf_value=-2000.5962697779146 1020.8598671514173 15893.809505208335 -346.84647802052234 -5196.9056103515632 20658.493095703128 -1049.8968001848616 2319.3489248932387 3285.6374109758649 4735.1844948137941 9084.8514450799848 -2204.8287965636323 16506.926915322583 30799.056877790179 10864.098971737134 6551.2599166972532 5307.9412216622495 7763.2529526519784 23893.452827380956 -1495.740257367228 3739.8258966315734 309.58307956686076 -685.44803620741152 3112.5983561197918 -18.181033421619521 769.41811537668468 2486.2743182991162 11910.942822265626 -1792.1115078595969 1583.2447172906748 10302.270132578975
leaf_weight=4758 2964 21 14213 20 25 11224 244 105 685 21 69 62 28 34 447 35 50 21 10980 2095 8351 12139 24 12871 7588 3951 23 104 6186 92
leaf_count=4758 2964 21 14213 20 25 11224 244 105 685 21 69 62 28 34 447 35 50 21 10980 2095 8351 12139 24 12871 7588 3951 23 104 6186 92
internal_value=0 2500.72 -514.202 2272.57 14957.9 -1177.64 83.915 1737.84 4392.03 12632.3 2480.73 16499.7 26015.8 5610.11 5452.31 9914.57 3743.2 18375.8 -1648.37 3833.61 540.506 -860.536 -664.449 -190.656 513.451 2559.99 4835.5 734.785 1401.07 8925.88
internal_weight=0 16958 82472 16653 305 39101 43371 13298 3355 252 4148 104 53 1166 1132 148 2189 83 15738 2145 16287 23363 44 27084 16043 4079 128 7692 9150 127
internal_count=99430 16958 82472 16653 305 39101 43371 13298 3355 252 4148 104 53 1166 1132 148 2189 83 15738 2145 16287 23363 44 27084 16043 4079 128 7692 9150 127
is_linear=0
shrinkage=0.1


Tree=10
num_leaves=31
num_cat=0
split_feature=34 34 34 34 6 34 9 34 34 22 30 35 1 1 10 25 1 37 34 22 34 34 9 16 35 9 34 12 15 20
split_gain=1.03746e+13 4.07179e+12 2.27743e+12 1.85864e+12 6.19773e+11 4.32547e+11 3.13884e+11 2.99372e+11 2.76128e+11 2.07989e+11 1.12787e+11 1.11627e+11 1.09169e+11 1.6321e+11 1.0772e+11 9.79525e+10 1.17758e+11 8.93113e+10 9.00838e+10 7.76381e+10 7.00748e+10 6.70681e+10 6.59336e+10 8.95554e+10 6.2182e+10 6.08963e+10 5.94829e+10 5.91679e+10 5.60694e+10 6.05385e+10
threshold=73714.285714285725 252285.71428571432 37868.131868131873 126521.97802197804 655500.00000000012 54010.989010989018 173500.00000000003 20236.26373626374 94730.769230769234 365500.00000000006 277500.00000000006 150483.33333333337 497500.00000000006 201500.00000000003 774000.00000000012 480500.00000000006 294000.00000000006 58166.666666666679 149879.12087912092 155500.00000000003 62945.054945054952 115593.4065934066 76500.000000000015 78500.000000000015 18583.333333333339 672500.00000000012 45978.021978021985 148500.00000000003 1.0000000180025095e-35 124500.00000000001
decision_type=2 2 2 2 10 2 10 2 2 8 10 10 2 2 10 8 2 8 2 8 2 2 8 8 8 8 2 10 8 10
left_child=2 3 7 8 9 24 17 -1 -2 -3 19 21 13 -11 -6 -15 -17 -5 22 -8 -7 -10 23 -19 -4 -14 -26 -20 29 -23
right_child=1 4 5 6 14 20 10 -9 11 12 -12 -13 25 15 -16 16 -18 18 27 -21 -22 28 -24 -25 26 -27 -28 -29 -30 -31
leaf_value=-1588.1996258855088 1003.9184673794507 7989.0931437988293 3026.5576115360968 8305.5086788293102 28997.679500679347 73.71335334512311 3158.3720488926151 -947.67253256131062 1672.9360233838875 20366.396171875003 12120.910955255684 -5254.5341796875 14539.265029907227 16627.474824218749 19319.368499490487 3476.7842176649306 11763.465766289895 -4060.7298857717806 4629.6976875889623 5266.0860246775264 435.56680972911602 2567.5724939416959 2811.9430677794571 2130.5880950927735 -523.52771564530497 21912.983837890628 -222.68545315711799 3138.7989853252652 2309.2343720077765 9634.3388472123588
leaf_weight=11834 9943 100 54 33 23 11590 212 19032 4392 20 22 22 24 20 23 27 47 33 483 995 9943 27 1819 80 12906 21 13392 593 1698 22
leaf_count=11834 9943 100 54 33 23 11590 212 19032 4392 20 22 22 24 20 23 27 47 33 483 995 9943 27 1819 80 12906 21 13392 593 1698 22
internal_value=0 1993.38 -523.436 1821.69 13462.1 -91.683 3676.56 -1193.25 1329.87 11562.4 5025.22 1855.92 13809.7 12163.5 24158.5 10418.1 8739.95 3131.5 3074.74 4895.88 240.801 1881.4 2666.34 322.504 -363.366 17980.3 -370.327 3808.04 2405.47 5740.41
internal_weight=0 20679 78751 20374 305 47885 4270 30866 16104 259 1229 6161 159 114 46 94 74 3041 3008 1207 21533 6139 1932 113 26352 45 26298 1076 1747 49
internal_count=99430 20679 78751 20374 305 47885 4270 30866 16104 259 1229 6161 159 114 46 94 74 3041 3008 1207 21533 6139 1932 113 26352 45 26298 1076 1747 49
is_linear=0
shrinkage=0.1


Tree=11
num_leaves=31
num_cat=0
split_feature=34 34 34 34 4 34 34 34 7 30 16 1 7 30 34 35 34 26 1 9 16 35 6 34 4 9 35 9 15 9
split_gain=8.4281e+12 3.09449e+12 2.29029e+12 1.15732e+12 5.28029e+11 4.2546e+11 3.90235e+11 2.62377e+11 1.83341e+11 1.49071e+11 1.25204e+11 1.23774e+11 1.18916e+11 1.17835e+11 1.15033e+11 9.36764e+10 8.52047e+10 6.84632e+10 9.09254e+10 6.66595e+10 6.11766e+10 5.72008e+10 5.66867e+10 5.92061e+10 5.0582e+10 4.93377e+10 4.79613e+10 4.77214e+10 6.24536e+10 4.54432e+10
threshold=83208.791208791226 252285.71428571432 43285.71428571429 145791.20879120883 641500.00000000012 61478.021978021985 28780.219780219784 108791.20879120882 373000.00000000006 477500.00000000006 1.0000000180025095e-35 223500.00000000003 855500.00000000012 280500.00000000006 187060.43956043958 157100.00000000003 13247.252747252749 52500.000000000007 84500.000000000015 89500.000000000015 259500.00000000003 126983.33333333336 84500.000000000015 52807.692307692312 133500.00000000003 205500.00000000003 97650.000000000015 116500.00000000001 172500.00000000003 101500.00000000001
decision_type=2 2 2 2 8 2 2 2 10 8 8 2 8 10 2 10 2 8 2 10 10 8 10 2 10 8 10 8 10 8
left_child=2 3 6 7 8 22 16 29 11 -10 -5 -3 -6 14 21 17 -1 18 -9 24 -13 -12 23 -4 -7 -16 -21 28 -19 -2
right_child=1 4 5 10 12 19 -8 15 9 -11 13 20 -14 -15 25 -17 -18 27 -20 26 -22 -23 -24 -25 -26 -27 -28 -29 -30 -31
leaf_value=-1585.4071951555004 1027.2361445503489 15262.685156250001 -251.08017511822618 -1541.552071027058 25336.217005208335 438.29544941231308 -646.00414922962307 9081.366527557373 8109.6166450718483 16121.865593863224 7047.3067722486421 4512.3611652311729 15778.935497781504 11489.499372209822 4112.0675420654297 -1706.5818772838961 -1135.04322471459 1845.5730103964336 2978.7533015278937 1130.0139441951842 8889.5499650186575 3474.7552229248245 -941.63339487219184 46.723597754523233 -1016.0905226216887 5963.7962156762769 -3197.114873798077 2375.1581044909435 -897.77097861550067 1516.0220920801551
leaf_weight=6222 4971 20 15810 41 30 15021 19520 32 35 69 46 61 23 21 250 62 12932 1456 103 1729 67 1743 878 11555 243 339 26 2956 88 3081
leaf_count=6222 4971 20 15810 41 30 15021 19520 32 35 69 46 61 23 21 250 62 12932 1456 103 1729 67 1743 878 11555 243 339 26 2956 88 3081
internal_value=0 2142.88 -395.561 1942.62 12115.9 87.2908 -960.666 1560.75 10207.7 13425.4 3937.91 7946.67 21188.7 4031.55 3965.69 2154.72 -1281.34 2206.37 4425.3 482.249 6803.55 3566.62 -150.708 -125.331 415.142 5177.83 1065.91 2139.8 1689.22 1214.26
internal_weight=0 15494 83936 15189 305 45262 38674 12749 252 104 2440 148 53 2399 2378 4697 19154 4635 135 17019 128 1789 28243 27365 15264 589 1755 4500 1544 8052
internal_count=99430 15494 83936 15189 305 45262 38674 12749 252 104 2440 148 53 2399 2378 4697 19154 4635 135 17019 128 1789 28243 27365 15264 589 1755 4500 1544 8052
is_linear=0
shrinkage=0.1


Tree=12
num_leaves=31
num_cat=0
split_feature=34 34 34 34 5 34 34 34 21 34 20 18 11 35 1 4 8 34 35 29 35 34 1 36 1 19 30 35 35 34
split_gain=6.85251e+12 2.66839e+12 1.50495e+12 1.23016e+12 4.7023e+11 2.76068e+11 2.09755e+11 2.02106e+11 1.80753e+11 1.78495e+11 9.6772e+10 9.48955e+10 1.47499e+11 8.01154e+10 7.31948e+10 8.48541e+10 5.71362e+10 5.30064e+10 5.06932e+10 5.04342e+10 6.07309e+10 4.9009e+10 4.86337e+10 4.79751e+10 4.79059e+10 4.72201e+10 9.87975e+10 4.47602e+10 4.43981e+10 4.72473e+10
threshold=73714.285714285725 252285.71428571432 37868.131868131873 126521.97802197804 788000.00000000012 54010.989010989018 158895.60439560443 17692.307692307695 303000.00000000006 91686.81318681319 607000.00000000012 57500.000000000007 97500.000000000015 150483.33333333337 497500.00000000006 200500.00000000003 222500.00000000003 115593.4065934066 18583.333333333339 78500.000000000015 113183.33333333336 64796.703296703301 92500.000000000015 83785.714285714304 294000.00000000006 53500.000000000007 147500.00000000003 141000.00000000003 45550.000000000007 29582.417582417587
decision_type=2 2 2 2 10 2 2 2 8 2 10 8 10 10 2 10 8 2 8 8 8 2 2 10 2 8 10 8 10 2
left_child=2 3 7 9 8 18 11 -1 -3 25 14 12 -5 17 15 -10 27 -11 -4 22 -21 23 -13 -7 -17 26 -2 -8 29 -9
right_child=1 4 5 6 -6 21 16 28 10 13 -12 19 -14 -15 -16 24 -18 -19 -20 20 -22 -23 -24 -25 -26 -27 -28 -29 -30 -31
leaf_value=-1336.1128450052083 1361.6312314796448 5417.2810148540302 2769.3035216154876 10854.736424434886 22372.957485961917 93.200564846288245 7963.1048233695656 -933.28729820177432 15153.763132440477 1314.0961943036612 17574.584909784226 -4317.4563134765622 2559.3949328192352 -4576.9760564630687 14214.828818609776 5646.078435724432 5047.791475954923 1946.5236412945378 -297.76421659138072 5727.0021178089492 2367.8160434053657 400.08813762084014 1274.0120438058038 -3009.8697696533204 9834.3101935492632 722.72738150237626 7190.2023532006051 3507.7504905899714 -3071.8671559412342 -630.80008472991801
leaf_weight=10126 470 76 54 34 32 14102 23 10305 21 5490 21 20 58 22 39 44 352 1747 26298 55 2508 7381 70 50 72 8344 31 1150 85 10350
leaf_count=10126 470 76 54 34 32 14102 23 10305 21 5490 21 20 58 22 39 44 352 1747 26298 55 2508 7381 70 50 72 8344 31 1150 85 10350
internal_value=0 1620.05 -425.405 1481.07 10904.3 -74.4323 2990.09 -969.899 9560.02 1080.95 11158.2 2467.69 5625.06 1448.45 10392.6 9304.58 3930.42 1466.76 -291.479 2358.2 2439.9 191.189 31.4635 82.2372 8245.67 779.344 1722.28 3595.11 -791.1 -781.714
internal_weight=0 20679 78751 20374 305 47885 4270 30866 273 16104 197 2745 92 7259 176 137 1525 7237 26352 2653 2563 21533 90 14152 116 8845 501 1173 20740 20655
internal_count=99430 20679 78751 20374 305 47885 4270 30866 273 16104 197 2745 92 7259 176 137 1525 7237 26352 2653 2563 21533 90 14152 116 8845 501 1173 20740 20655
is_linear=0
shrinkage=0.1


Tree=13
num_leaves=31
num_cat=0
split_feature=34 34 34 34 6 34 34 34 16 29 1 8 1 34 10 8 26 1 28 12 19 22 3 15 1 34 34 6 34 34
split_gain=5.55679e+12 2.12808e+12 1.2967e+12 9.34604e+11 3.45343e+11 2.19982e+11 2.07561e+11 1.62507e+11 1.57574e+11 1.27496e+11 1.07493e+11 1.49472e+11 9.43932e+10 8.92059e+10 8.89743e+10 7.12757e+10 6.20042e+10 8.01851e+10 5.46234e+10 5.8442e+10 5.31948e+10 5.79123e+10 5.30426e+10 5.14208e+10 5.09949e+10 4.19357e+10 4.16005e+10 3.92194e+10 4.75938e+10 3.71013e+10
threshold=76483.516483516505 252285.71428571432 41615.384615384632 131434.06593406596 655500.00000000012 21445.054945054948 59532.967032967041 102758.24175824177 168500.00000000003 326000.00000000006 223500.00000000003 344500.00000000006 515000.00000000006 187060.43956043958 774000.00000000012 573500.00000000012 52500.000000000007 84500.000000000015 173500.00000000003 158500.00000000003 233500.00000000003 261500.00000000003 -110499.99999999999 102500.00000000001 256500.00000000003 47291.208791208795 30857.142857142859 16500.000000000004 72598.9010989011 9456.0439560439572
decision_type=2 2 2 2 10 2 2 2 8 8 2 8 2 2 10 8 8 2 10 10 10 10 10 8 2 2 2 8 2 2
left_child=2 3 5 7 9 29 25 -2 20 24 -11 -12 15 22 -6 -13 17 -9 -18 -20 21 -5 -10 -24 -3 -4 -7 28 -8 -1
right_child=1 4 6 8 14 26 27 16 13 10 11 12 -14 -15 -16 -17 18 -19 19 -21 -22 -23 23 -25 -26 -27 -28 -29 -30 -31
leaf_value=-1481.5915066217676 835.6633698135438 873.38726917613644 -321.56575956153955 2164.3247549288722 22196.344325322691 -795.31441303472832 714.40268589234597 8148.5082220262093 1726.8378702208056 16207.169552479621 4153.3807390578249 10747.730431547619 15563.62038810484 4521.4994539003119 13400.381704313859 3895.6164884948735 1547.3277449861353 2298.826240317027 766.78578908074769 -3951.1406538221572 -1255.2752102322049 7577.5255200195315 7268.9522499084478 3201.3279743947624 6600.6207243145636 -70.644379217972116 -521.70804124197218 263.04008572321055 3292.8946550040414 -1059.3267153925738
leaf_weight=2623 10675 22 10492 1671 23 9150 404 31 258 23 47 63 31 555 23 20 4315 96 97 36 45 20 32 1079 53 18239 14152 15003 87 10065
leaf_count=2623 10675 22 10492 1671 23 9150 404 31 258 23 47 63 31 555 23 20 4315 96 97 36 45 20 32 1079 53 18239 14152 15003 87 10065
internal_value=0 1527.43 -365.886 1393.78 9813.89 -811.578 -3.18507 1049.37 2828.81 8395.8 9812.31 8898.76 10855.2 3452.08 17798.4 9096.62 1548.01 3726.7 1485.8 -510.247 2138.05 2228.35 3018.53 3318.49 4920.63 -162.276 -629.145 291.822 1171.28 -1146.62
internal_weight=0 19215 80215 18910 305 35990 44225 15250 3660 259 184 161 114 1924 46 83 4575 127 4448 133 1736 1691 1369 1111 75 28731 23302 15494 491 12688
internal_count=99430 19215 80215 18910 305 35990 44225 15250 3660 259 184 161 114 1924 46 83 4575 127 4448 133 1736 1691 1369 1111 75 28731 23302 15494 491 12688
is_linear=0
shrinkage=0.1


Tree=14
num_leaves=31
num_cat=0
split_feature=34 34 34 34 4 34 34 21 9 16 23 22 23 16 9 1 35 37 37 29 9 34 2 7 9 34 37 24 29 2
split_gain=4.53049e+12 1.61174e+12 1.29781e+12 5.92494e+11 3.00679e+11 2.56426e+11 2.09656e+11 1.35559e+11 1.25309e+11 1.03528e+11 9.74607e+10 1.30944e+11 8.20026e+10 6.35084e+10 5.91389e+10 5.73345e+10 5.35835e+10 5.34825e+10 5.34615e+10 5.16449e+10 5.07435e+10 4.76491e+10 4.63181e+10 5.58337e+10 4.61999e+10 4.53606e+10 4.3854e+10 4.26074e+10 4.02727e+10 4.02356e+10
threshold=85637.362637362647 252285.71428571432 45763.736263736275 145791.20879120883 641500.00000000012 28939.560439560442 67664.835164835167 492500.00000000006 110500.00000000001 860000.00000000012 21500.000000000004 266500.00000000006 276500.00000000006 169500.00000000003 14500.000000000002 193500.00000000003 157100.00000000003 26500.000000000004 146500.00000000003 220500.00000000003 102500.00000000001 187060.43956043958 -72499.999999999985 355500.00000000006 51500.000000000007 122829.67032967033 101166.66666666667 463500.00000000006 467000.00000000006 34500.000000000007
decision_type=2 2 2 2 8 2 2 10 8 8 8 10 8 8 10 2 10 8 10 10 10 2 10 8 8 2 10 8 10 10
left_child=2 3 5 8 7 14 17 12 19 -6 -5 13 -3 18 -1 -14 25 -4 -12 -2 26 -15 -17 27 -19 -10 -8 -24 -9 -7
right_child=1 4 6 10 9 29 20 28 16 -11 11 -13 15 21 -16 22 -18 24 -20 -21 -22 -23 23 -25 -26 -27 -28 -29 -30 -31
leaf_value=-1109.2159160962181 867.8672024020658 2772.4092434082031 1164.562006553811 -2191.4209479254646 11001.574289062501 -411.00880363960334 469.36298111237448 9210.2944668856544 1347.8203759512789 19855.145331682477 3525.4415230967206 9236.0567382812496 12425.322293701172 2871.8288426263271 -761.5115034299306 2600.406547214674 -1450.1315897278866 -211.04637960759297 1728.9544167646179 4895.3787279129028 1303.7215080683611 4048.3639873258999 8045.7421905517585 9974.407071461399 53.318520854767193 1952.0386736339156 -775.81187942609768 2800.0525211588542 15133.644771321617 -1019.8121194252731
leaf_weight=9524 6312 50 379 37 25 22344 10093 22 3228 28 225 33 20 989 10057 23 59 9691 628 32 718 528 32 51 20796 2020 291 30 24 1141
leaf_count=9524 6312 50 379 37 25 22344 10093 22 3228 28 225 33 20 989 10057 23 59 9691 628 32 718 528 32 51 20796 2020 291 30 24 1141
internal_value=0 1640.55 -277.74 1484.88 8832.5 -663.398 118.007 7392.58 1188.13 15678.9 2901.84 2980.26 6296.58 2893.16 -930.631 7426.13 1546.7 -16.0393 2202.82 888.183 490.686 3281.33 6690.95 7523.54 -30.716 1580.39 434.468 5507.51 12300.7 -440.587
internal_weight=0 14396 85034 14091 305 43066 41968 252 11651 53 2440 2403 206 2370 19581 156 5307 30866 853 6344 11102 1517 136 113 30487 5248 10384 62 46 23485
internal_count=99430 14396 85034 14091 305 43066 41968 252 11651 53 2440 2403 206 2370 19581 156 5307 30866 853 6344 11102 1517 136 113 30487 5248 10384 62 46 23485
is_linear=0
shrinkage=0.1


Tree=15
num_leaves=31
num_cat=0
split_feature=34 34 34 34 5 34 34 23 34 25 23 3 25 19 1 1 0 12 37 37 37 28 18 0 31 17 1 37 34 12
split_gain=3.67027e+12 1.28865e+12 1.08764e+12 4.56232e+11 2.89e+11 2.02832e+11 1.92675e+11 1.13238e+11 8.90192e+10 8.10181e+10 8.56163e+10 6.847e+10 1.02711e+11 5.8529e+10 5.72756e+10 5.4078e+10 6.78524e+10 5.35791e+10 4.88257e+10 4.73313e+10 4.60925e+10 4.48067e+10 4.44555e+10 4.59076e+10 7.42918e+10 4.55232e+10 4.52462e+10 4.02705e+10 4.01004e+10 3.8576e+10
threshold=86967.032967032981 252285.71428571432 44659.340659340676 145791.20879120883 788000.00000000012 64796.703296703301 25016.48351648352 315500.00000000006 115593.4065934066 1.0000000180025095e-35 21500.000000000004 -191499.99999999997 480500.00000000006 132500.00000000003 215500.00000000003 497500.00000000006 634541.00000000012 405000.00000000006 49500.000000000007 83166.666666666672 26833.333333333339 230500.00000000003 150500.00000000003 633218.00000000012 110500.00000000001 152500.00000000003 44500.000000000007 131500.00000000003 56357.142857142862 261500.00000000003
decision_type=2 2 2 2 10 2 2 8 2 8 8 8 10 10 2 2 2 10 8 10 8 10 10 2 10 10 2 10 2 10
left_child=2 3 6 8 7 19 -1 21 27 -5 -11 -9 15 -10 29 16 -13 -18 -7 20 -4 -3 26 24 -24 -26 -15 -2 -22 -12
right_child=1 4 5 9 -6 18 -8 11 13 10 14 12 -14 22 -16 -17 17 -19 -20 -21 28 -23 23 -25 25 -27 -28 -29 -30 -31
leaf_value=-893.84161456765889 937.34425380312553 -12.287892217221469 1010.8729281645591 7776.3442028808604 16940.192559051513 1462.309387362478 -446.44752417814772 12970.507528921275 1789.2680184690316 -2362.4774604143417 2471.1791305292813 5564.967847079919 2635.9796630859378 4932.8526032418922 3802.9263852094855 13021.639477539064 13664.102952223557 6958.7717595880677 376.76215001185392 -1258.9576841491892 -135.27401496090329 5230.0769208635611 1711.1563091571516 776.6819749232701 -763.2266290072738 -5994.8845815805289 1157.7288645517583 -534.01255338578949 109.23570162599236 -1028.5993682861329
leaf_weight=15311 7129 23 416 30 32 427 25925 26 2412 35 1994 61 35 33 349 24 26 22 13969 319 19045 56 39 210 29 39 837 191 10354 32
leaf_count=15311 7129 23 416 30 32 427 25925 26 2412 35 1994 61 35 33 349 24 26 22 13969 319 19045 56 39 210 29 39 837 191 10354 32
internal_value=0 1522.15 -242.505 1375.42 7949.25 100.181 -612.566 6895.37 1099.16 2611.66 2547.37 8195.02 7455.96 1506.37 2619.72 8724.38 7778.19 10590.8 408.961 -47.3336 -34.3701 3703.82 931.514 -82.321 -1768.21 -3763.74 1300.92 898.952 -49.1604 2415.9
internal_weight=0 13664 85766 13359 305 44530 41236 273 10919 2440 2410 194 168 3599 2375 133 109 48 14396 30134 29815 79 1187 317 107 68 870 7320 29399 2026
internal_count=99430 13664 85766 13359 305 44530 41236 273 10919 2440 2410 194 168 3599 2375 133 109 48 14396 30134 29815 79 1187 317 107 68 870 7320 29399 2026
is_linear=0
shrinkage=0.1


Tree=16
num_leaves=31
num_cat=0
split_feature=34 34 34 34 5 9 9 34 23 30 16 3 25 18 18 4 34 18 34 8 8 28 35 1 8 2 23 36 17 9
split_gain=2.99004e+12 1.0977e+12 7.73811e+11 4.48076e+11 2.3409e+11 1.85481e+11 1.13961e+11 9.60805e+10 9.17227e+10 7.31609e+10 7.4481e+10 5.54607e+10 8.31958e+10 5.52502e+10 4.97682e+10 4.93326e+10 4.86313e+10 4.75825e+10 4.75278e+10 4.56212e+10 4.55909e+10 4.33251e+10 4.27599e+10 4.70887e+10 5.61574e+10 4.26984e+10 4.26736e+10 4.26018e+10 4.11225e+10 3.99621e+10
threshold=80351.648351648371 252285.71428571432 37868.131868131873 141604.39560439563 788000.00000000012 57500.000000000007 119500.00000000001 16978.021978021981 315500.00000000006 283500.00000000006 170500.00000000003 -191499.99999999997 480500.00000000006 96500.000000000015 195500.00000000003 484500.00000000006 67950.549450549457 314500.00000000006 50527.472527472535 279500.00000000006 219500.00000000003 28500.000000000004 157100.00000000003 58500.000000000007 115500.00000000001 -67499.999999999985 31500.000000000004 78785.714285714304 140500.00000000003 91500.000000000015
decision_type=2 2 2 2 10 10 10 2 8 10 8 8 10 10 10 8 2 8 2 10 10 8 10 2 10 8 10 10 8 8
left_child=2 3 7 6 8 13 29 -1 -3 10 14 -10 15 18 -5 17 21 -13 -4 -19 -12 -7 23 24 25 -8 -15 -23 -22 -2
right_child=1 4 5 9 -6 16 22 -9 11 -11 20 12 -14 26 -16 -17 -18 19 -20 -21 28 27 -24 -25 -26 -27 -28 -29 -30 -31
leaf_value=-905.37802528962368 499.86738139916582 3333.436958100524 -251.37263287828779 1837.3598890438859 15246.173390197755 1072.898049690313 5478.0394548688619 -525.30711362880663 11673.45669133113 8147.8383376348593 2429.5305334829513 10908.860622336648 2372.3817222377234 -2400.1086911156067 -237.95739025086846 11345.435260206654 450.93495010437277 2807.6498305812029 -1.5373833885656394 7658.5525842544885 7835.8191528320312 106.54374929286503 -1565.5726105385638 1377.0583487954391 5321.8694450827206 336.80131748744424 -456.78734051510958 -1394.2214968214432 3481.2783644883903 885.79224868012261
leaf_weight=9699 4647 79 18036 980 32 459 21 21167 26 21 1364 22 35 189 131 31 6535 33 13178 47 24 12736 47 2706 68 70 281 192 225 6349
leaf_count=9699 4647 79 18036 980 32 459 21 21167 26 21 1364 22 35 189 131 31 6535 33 13178 47 24 12736 47 2706 68 70 281 192 225 6349
internal_value=0 1209.33 -248.665 1100.45 7154.33 -11.7704 870.004 -644.737 6205.83 2268.04 2222.71 7375.52 6710.36 -162.101 1592.66 7851.94 227.315 6790.19 -145.897 5657.56 2656.68 118.153 1426.25 1475.33 3147.81 1523.24 -1238.25 84.2552 3900.99 722.697
internal_weight=0 16958 82472 16653 305 51606 13908 30866 273 2745 2724 194 168 31684 1111 133 19922 102 31214 80 1613 13387 2912 2865 159 91 470 12928 249 10996
internal_count=99430 16958 82472 16653 305 51606 13908 30866 273 2745 2724 194 168 31684 1111 133 19922 102 31214 80 1613 13387 2912 2865 159 91 470 12928 249 10996
is_linear=0
shrinkage=0.1


Tree=17
num_leaves=31
num_cat=0
split_feature=34 34 34 34 20 9 34 33 35 22 9 23 9 36 22 27 9 35 37 11 6 37 37 3 17 2 33 6 17 3
split_gain=2.42982e+12 9.27671e+11 5.49003e+11 4.48994e+11 1.81714e+11 1.19517e+11 1.1192e+11 9.70095e+10 8.01847e+10 1.60962e+11 7.76528e+10 7.38687e+10 7.27942e+10 7.19429e+10 5.56503e+10 1.27072e+11 5.43953e+10 5.353e+10 5.2429e+10 4.61722e+10 4.30419e+10 4.14747e+10 4.10373e+10 1.19554e+11 3.93685e+10 4.61753e+10 3.9269e+10 1.08935e+11 8.52141e+10 3.8877e+10
threshold=73714.285714285725 252285.71428571432 36390.109890109896 120565.93406593408 607000.00000000012 173500.00000000003 53593.406593406602 663000.00000000012 113183.33333333336 124500.00000000001 100500.00000000001 315500.00000000006 14500.000000000002 73642.857142857145 171500.00000000003 117500.00000000001 151500.00000000003 61116.666666666679 129500.00000000001 206500.00000000003 97500.000000000015 46166.666666666679 1.0000000180025095e-35 68500.000000000015 511000.00000000006 5500.0000000000009 63500.000000000007 51500.000000000007 77500.000000000015 -422499.99999999994
decision_type=2 2 2 2 10 10 2 10 8 10 10 8 10 8 8 8 10 10 10 10 10 8 8 8 10 10 8 10 10 10
left_child=2 3 12 10 11 8 17 -6 9 20 18 -3 -1 -10 -7 -16 29 22 26 -15 -5 -8 23 -4 25 -18 27 28 -2 -13
right_child=1 4 6 5 7 14 21 -9 13 -11 -12 16 -14 19 15 -17 24 -19 -20 -21 -22 -23 -24 -25 -26 -27 -28 -29 -30 -31
leaf_value=-805.68461756856823 9073.5479777018245 2882.4592836037664 393.45320136837847 -1680.4216648267663 17587.434267578126 1499.9613667051508 800.1245374451687 7964.5462579900577 -4650.5932006835938 11354.39248046875 971.00801907766936 6760.1288192749025 -477.06846121747151 1438.4033728812051 10807.264724121094 2748.7146438775671 4494.7125362141924 -2391.6272964200107 -1278.7336798275219 -206.07590456594968 3598.94385661673 82.805798055438743 -191.23524995554214 8407.2155703590033 2194.7749631245929 8469.2335789730678 446.32328588745816 805.70057947400596 1761.3885921702667 12920.594797363281
leaf_weight=11116 30 78 164 23 20 391 837 22 20 24 4172 21 17127 3698 20 905 60 110 170 179 47 21794 27582 21 27 57 10164 497 34 20
leaf_count=11116 30 78 164 23 20 391 837 22 20 24 4172 21 17127 3698 20 905 60 110 170 179 47 21794 27582 21 27 57 10164 497 34 20
internal_value=0 964.699 -253.318 882.75 6438.9 1673.74 -55.8778 12546.9 1401.23 4287.3 604.143 5463.48 -606.407 1331.62 2500.16 2922.95 6551.69 -190.001 463.66 1362.48 1864.3 109.336 -181.279 1303.12 5636.72 6431.02 491.278 1305.75 5188.96 9765.23
internal_weight=0 20679 78751 20374 305 5307 50508 42 3991 94 15067 263 28243 3897 1316 925 185 27877 10895 3877 70 22631 27767 185 144 117 10725 561 64 41
internal_count=99430 20679 78751 20374 305 5307 50508 42 3991 94 15067 263 28243 3897 1316 925 185 27877 10895 3877 70 22631 27767 185 144 117 10725 561 64 41
is_linear=0
shrinkage=0.1


Tree=18
num_leaves=31
num_cat=0
split_feature=34 34 34 34 5 34 34 21 18 23 18 17 1 37 31 6 34 34 27 36 30 30 23 36 37 25 37 27 8 4
split_gain=1.99045e+12 6.66809e+11 6.20187e+11 2.31089e+11 1.76919e+11 1.27734e+11 1.08541e+11 6.98786e+10 6.40113e+10 5.99346e+10 4.89961e+10 4.79022e+10 4.15963e+10 4.11942e+10 5.81081e+10 3.75885e+10 3.72716e+10 3.64827e+10 4.97752e+10 8.39364e+10 3.91017e+10 4.57199e+10 3.62272e+10 3.58103e+10 3.52984e+10 3.52766e+10 3.48189e+10 3.47184e+10 3.41991e+10 3.30139e+10
threshold=89961.538461538483 252285.71428571432 46115.384615384624 145791.20879120883 788000.00000000012 29296.703296703301 67664.835164835167 461500.00000000006 1.0000000180025095e-35 84500.000000000015 460500.00000000006 289500.00000000006 215500.00000000003 43833.333333333336 59500.000000000007 80500.000000000015 10285.714285714286 115593.4065934066 127500.00000000001 179642.85714285719 187500.00000000003 206500.00000000003 85500.000000000015 179642.85714285719 173500.00000000003 448500.00000000006 73166.666666666672 136500.00000000003 157500.00000000003 81500.000000000015
decision_type=2 2 2 2 10 2 2 10 8 8 10 8 2 8 8 10 2 2 10 10 10 10 8 10 10 10 10 8 8 10
left_child=2 3 5 17 7 16 15 10 -5 24 11 -3 27 14 -8 -4 -1 22 23 20 -20 -22 -2 -19 -10 -9 -7 -11 -29 -17
right_child=1 4 6 8 -6 26 13 25 9 12 -12 -13 -14 -15 -16 29 -18 18 19 -21 21 -23 -24 -25 -26 -27 -28 28 -30 -31
leaf_value=-917.37854024866795 56.883912361334005 2490.3616044044497 21.940220483603799 6060.1572991448484 12829.668975448609 -269.83006760697361 5532.6739608302269 11237.899082728794 715.97828842163096 3074.7354699649914 199.84809221540181 5888.0420557054422 2971.1559807403746 318.71424535765641 1020.1954537567934 -299.30085159919525 -557.18261948058762 1306.4730762846527 530.3689724256709 -5179.6457539062503 6892.9613101050973 1242.1799662272135 789.23156589763494 4622.9334339488641 -4074.0072363281251 6218.1826230003717 -2014.0246612681512 980.4404799876844 1928.6008434953801 -1634.1109074513847
leaf_weight=3477 771 64 28315 37 32 24041 33 21 40 187 28 118 342 12688 211 1235 16531 2431 1044 25 21 45 5451 33 25 42 115 544 1265 218
leaf_count=3477 771 64 28315 37 32 24041 33 21 40 187 28 118 342 12688 211 1235 16531 2431 1044 25 21 45 5451 33 25 42 115 544 1265 218
internal_value=0 1176.35 -170.175 1061.46 5795.01 -432.912 101.57 4970.43 1932.44 1868.89 4094.13 4693.25 1952.16 343.465 1630.49 -3.51503 -619.778 845.068 1098.49 550.541 679.6 3040.16 698.483 1350.89 -1126.32 7891.42 -278.134 1777.56 1643.47 -499.568
internal_weight=0 12566 86864 12261 305 44164 42700 273 2440 2403 210 182 2338 12932 244 29768 20008 9821 3599 1135 1110 66 6222 2464 65 63 24156 1996 1809 1453
internal_count=99430 12566 86864 12261 305 44164 42700 273 2440 2403 210 182 2338 12932 244 29768 20008 9821 3599 1135 1110 66 6222 2464 65 63 24156 1996 1809 1453
is_linear=0
shrinkage=0.1


Tree=19
num_leaves=31
num_cat=0
split_feature=34 34 34 34 5 9 9 16 22 21 3 25 9 19 37 11 4 1 37 7 4 2 19 8 8 30 16 29 6 8
split_gain=1.6126e+12 5.31372e+11 5.2257e+11 1.75266e+11 1.43304e+11 1.21653e+11 9.97697e+10 6.31318e+10 7.75625e+10 5.66017e+10 1.06715e+11 6.96848e+10 4.86095e+10 5.37162e+10 4.95018e+10 4.84101e+10 6.21406e+10 5.53541e+10 4.58875e+10 4.54715e+10 4.24264e+10 4.18273e+10 3.67838e+10 3.81711e+10 3.61651e+10 3.73175e+10 5.52036e+10 3.47813e+10 3.4559e+10 3.53832e+10
threshold=91686.81318681319 252285.71428571432 47291.208791208795 145791.20879120883 788000.00000000012 28500.000000000004 65500.000000000007 1.0000000180025095e-35 282500.00000000006 461500.00000000006 -114499.99999999999 480500.00000000006 80500.000000000015 178500.00000000003 79166.666666666672 511000.00000000006 151500.00000000003 294000.00000000006 39166.666666666679 513500.00000000006 133500.00000000003 -20499.999999999996 279500.00000000006 233500.00000000003 286500.00000000006 179500.00000000003 79500.000000000015 45500.000000000007 24500.000000000004 141500.00000000003
decision_type=2 2 2 2 10 10 10 8 10 10 10 10 8 10 8 10 10 2 10 8 10 10 10 10 10 10 8 10 8 10
left_child=2 3 5 12 9 -1 20 -5 22 15 -11 -12 13 24 -14 16 -3 -18 -8 21 28 -19 23 -9 25 26 27 -2 29 -4
right_child=1 4 6 7 -6 -7 18 8 -10 10 11 -13 14 -15 -16 -17 17 19 -20 -21 -22 -23 -24 -25 -26 -27 -28 -29 -30 -31
leaf_value=-541.46600048615232 -4085.61635575728 9484.7651025390642 483.38460275082235 -2151.7206019703935 11546.701883697511 -217.88673251218384 1522.3478178685009 1682.0492961253003 7716.0597330700275 13137.059084472658 8415.7781250000007 362.32168856534093 2174.7034935774368 -3449.5721999395464 810.27446124542257 -644.55482549252724 1618.0450769994168 888.91979792668269 285.66741284627386 9475.5035571289063 -1320.4084678431921 5947.933305220171 -1919.0020751953125 3255.0206146791757 4317.5493710472465 4365.905217895508 448.20057332840435 -731.63606781592739 -19.512423004658139 3368.3548086208766
leaf_weight=22962 44 20 769 41 32 23520 306 2184 22 20 21 22 275 42 8036 23 77 26 15406 20 245 44 27 166 21 20 547 104 24343 45
leaf_count=22962 44 20 769 41 32 23520 306 2184 22 20 21 22 275 42 8036 23 77 26 15406 20 245 44 27 166 21 20 547 104 24343 45
internal_value=0 1095.67 -148.023 986.683 5215.51 -377.734 111.681 1739.2 1805.7 4473.39 7102.28 4295.41 784.665 28.8085 855.422 3684.72 4217.2 3586.35 309.752 5270.35 -10.8335 4068.87 1751 1793.16 227.303 107.17 -15.3835 -1728.77 1.92025 642.873
internal_weight=0 11834 87596 11529 305 46482 41114 2440 2399 273 63 43 9089 778 8311 210 187 167 15712 90 25402 70 2377 2350 736 715 695 148 25157 814
internal_count=99430 11834 87596 11529 305 46482 41114 2440 2399 273 63 43 9089 778 8311 210 187 167 15712 90 25402 70 2377 2350 736 715 695 148 25157 814
is_linear=0
shrinkage=0.1


Tree=20
num_leaves=31
num_cat=0
split_feature=9 8 9 8 37 9 9 12 22 10 20 18 16 37 30 9 30 2 16 24 31 26 5 30 37 20 13 30 3 2
split_gain=1.18849e+12 4.02626e+11 3.716e+11 1.57863e+11 1.08051e+11 1.06326e+11 9.07747e+10 7.79722e+10 5.57189e+10 5.11065e+10 4.74209e+10 8.68195e+10 4.47425e+10 4.27496e+10 5.50483e+10 4.1083e+10 4.10518e+10 4.06483e+10 3.99535e+10 3.70958e+10 3.42803e+10 3.87646e+10 3.31312e+10 3.22983e+10 3.21737e+10 3.00501e+10 2.95989e+10 2.81809e+10 3.19638e+10 3.33009e+10
threshold=91500.000000000015 286500.00000000006 40500.000000000007 157500.00000000003 248333.33333333334 582500.00000000012 65500.000000000007 860000.00000000012 294000.00000000006 329000.00000000006 204500.00000000003 96500.000000000015 14500.000000000002 85166.666666666672 36500.000000000007 240500.00000000003 258500.00000000003 69500.000000000015 115500.00000000001 57500.000000000007 609500.00000000012 230500.00000000003 177500.00000000003 477500.00000000006 1.0000000180025095e-35 130500.00000000001 12500.000000000002 197500.00000000003 -129499.99999999999 35500.000000000007
decision_type=10 10 8 10 10 10 10 8 10 10 10 10 8 10 10 10 8 10 8 8 8 10 10 10 10 10 10 10 10 10
left_child=2 3 10 8 6 16 22 -7 9 18 12 -12 13 24 26 19 -3 -14 -2 -5 23 -22 -4 -18 -1 -19 -15 28 29 -20
right_child=1 5 4 15 -6 7 -8 -9 -10 -11 11 -13 17 14 -16 -17 20 25 27 -21 21 -23 -24 -25 -26 -27 -28 -29 -30 -31
leaf_value=615.9759732657617 512.81242895167384 126.20601133263629 -56.957171463385436 4793.033193790211 6603.0197023925784 6208.5466522216802 240.83558749259339 14167.97060546875 5714.1207014604051 -4373.9294418334966 -1216.5859195963542 6599.7548308195901 -318.22226545970864 -1202.1312755443432 145.7893627025463 3079.3105229316875 4610.44066722973 -1004.390355945736 495.55532077636718 1456.9010537759632 4791.5637331940407 -537.35064208984375 1442.0459885262155 9382.4425462805721 -616.97542067607105 -4036.9670061383931 -5210.3483032226568 2498.1909180807415 926.75255576316545 -2403.688492400071
leaf_weight=218 5810 23 39368 34 25 32 14548 20 22 20 30 27 24681 27 54 188 37 492 125 1692 43 20 148 23 7261 35 58 109 4202 58
leaf_count=218 5810 23 39368 34 25 32 14548 20 22 20 30 27 24681 27 54 188 37 492 125 1692 43 20 148 23 7261 35 58 109 4202 58
internal_value=0 913.492 -130.85 841.246 30.3183 5386.91 27.2789 9269.86 686.905 676.192 -395.954 2485.89 -400.958 -613.332 -2350.97 1675.52 4003.94 -336.778 685.995 1522.62 4729.05 3099.84 -51.3429 6439.71 -581.037 -1205.79 -3937.15 909.89 870.409 -423.331
internal_weight=0 12458 86972 12260 54089 198 54064 52 10346 10324 32883 57 32826 7618 139 1914 146 25208 10304 1726 123 63 39516 60 7479 527 85 4494 4385 183
internal_count=99430 12458 86972 12260 54089 198 54064 52 10346 10324 32883 57 32826 7618 139 1914 146 25208 10304 1726 123 63 39516 60 7479 527 85 4494 4385 183
is_linear=0
shrinkage=0.1


Tree=21
num_leaves=31
num_cat=0
split_feature=36 17 36 16 16 20 29 37 33 23 19 13 14 30 16 4 13 4 33 14 36 18 10 13 10 13 29 27 24 16
split_gain=8.11863e+11 3.13373e+11 2.73348e+11 1.29599e+11 1.06836e+11 9.75557e+10 8.23741e+10 7.86671e+10 7.80952e+10 6.00446e+10 5.35383e+10 5.18783e+10 4.16487e+10 4.07712e+10 3.68835e+10 6.27582e+10 1.32148e+11 3.68761e+10 4.71289e+10 4.27785e+10 3.88026e+10 3.66472e+10 3.51475e+10 3.36485e+10 3.1525e+10 3.10371e+10 3.0638e+10 5.54503e+10 2.97919e+10 2.96733e+10
threshold=101500.00000000001 42500.000000000007 265285.71428571438 76500.000000000015 168500.00000000003 607000.00000000012 184500.00000000003 220833.33333333334 663000.00000000012 15500.000000000002 525500.00000000012 51500.000000000007 268000.00000000006 457500.00000000006 60500.000000000007 51500.000000000007 168500.00000000003 50500.000000000007 219500.00000000003 195500.00000000003 21071.428571428576 230500.00000000003 188500.00000000003 282500.00000000006 94500.000000000015 53500.000000000007 256500.00000000003 189500.00000000003 202500.00000000003 114500.00000000001
decision_type=10 8 10 10 10 10 10 10 10 8 10 10 8 10 8 10 10 8 8 10 10 10 10 10 10 10 10 10 10 10
left_child=1 9 4 6 14 10 7 17 -7 -1 12 -8 -4 23 21 16 -16 19 -19 20 -3 24 28 -14 25 -2 -6 -28 29 -5
right_child=2 3 5 22 26 8 11 -9 -10 -11 -12 -13 13 -15 15 -17 -18 18 -20 -21 -22 -23 -24 -25 -26 -27 27 -29 -30 -31
leaf_value=-598.5648708868631 1331.1294607979912 -320.53644557533522 1328.9352773267171 353.46233791556512 1563.6731197420138 13243.086552734378 8030.1665392303466 4471.2194248297274 4609.1197443181818 -270.00697718652077 -1246.6480180220171 1310.5421178747108 6743.9275378417969 8377.3427743417251 1286.0853716961749 700.84480026213612 10074.106680852718 -93.944671697488673 159.52996808779551 4506.1375781249999 -36.462146915327459 -4341.4213101473724 4226.9474067687988 2695.1171095862755 569.42688363426089 -3250.0233243408202 7709.4426453300148 1183.1697326660158 -2604.0984660755507 1068.9224190906978
leaf_weight=7416 21 6836 43 7836 1333 20 20 39 22 22252 22 27 30 27 77 6098 22 12787 17205 20 16211 22 24 65 193 50 23 30 33 626
leaf_count=7416 21 6836 43 7836 1333 20 20 39 22 22252 22 27 30 27 77 6098 22 12787 17205 20 16211 22 24 65 193 50 23 30 33 626
internal_value=0 -85.0864 959.633 43.3972 860.521 4365.37 -14.6457 -18.3497 8720.53 -352.135 3387.2 4169.96 4005.05 4948.27 690.151 741.393 3238.98 -21.6497 51.4618 -116.71 -120.722 -420.138 405.492 3973.69 -93.3639 -1895.03 1657.42 4015.33 394.696 406.39
internal_weight=0 91332 8098 61664 7869 229 53145 53098 42 29668 187 47 165 122 6483 6197 99 53059 29992 23067 23047 286 8519 95 264 71 1386 53 8495 8462
internal_count=99430 91332 8098 61664 7869 229 53145 53098 42 29668 187 47 165 122 6483 6197 99 53059 29992 23067 23047 286 8519 95 264 71 1386 53 8495 8462
is_linear=0
shrinkage=0.1


Tree=22
num_leaves=31
num_cat=0
split_feature=34 34 34 4 9 21 7 29 6 18 30 26 12 9 6 26 33 31 23 4 27 37 16 9 23 10 9 7 9 23
split_gain=9.50668e+11 3.58331e+11 2.13934e+11 1.8178e+11 9.95429e+10 9.37509e+10 7.59555e+10 6.31883e+10 6.30115e+10 6.13352e+10 6.04392e+10 8.33698e+10 5.21267e+10 4.81399e+10 4.35363e+10 7.64592e+10 6.35351e+10 4.75298e+10 4.82809e+10 4.06946e+10 3.87113e+10 4.83605e+10 4.3731e+10 4.27547e+10 3.97854e+10 3.85082e+10 4.28124e+10 4.34931e+10 3.81425e+10 3.57469e+10
threshold=72186.813186813204 171978.02197802201 35120.87912087913 641500.00000000012 103500.00000000001 263500.00000000006 855500.00000000012 220500.00000000003 105500.00000000001 350000.00000000006 258500.00000000003 124500.00000000001 197500.00000000003 50500.000000000007 44500.000000000007 67500.000000000015 61500.000000000007 145500.00000000003 151500.00000000003 200500.00000000003 161500.00000000003 164166.66666666672 152500.00000000003 321500.00000000006 137500.00000000003 255500.00000000003 64500.000000000007 129500.00000000001 11500.000000000002 247500.00000000003
decision_type=2 2 2 8 8 10 8 10 10 10 10 10 10 8 10 8 8 10 10 10 8 10 8 10 10 10 10 10 10 8
left_child=2 4 28 5 7 9 -5 12 -9 20 -6 -12 14 -4 15 16 -2 18 -17 -7 21 -3 24 -24 -22 26 27 -16 -1 -21
right_child=1 3 13 6 10 19 -8 8 -10 -11 11 -13 -14 -15 25 17 -18 -19 -20 29 22 -23 23 -25 -26 -27 -28 -29 -30 -31
leaf_value=-560.56080565441403 6985.3158884684253 5909.8448263888895 -156.10570280385443 10787.875849609376 700.08412238160508 7885.8984252929695 4231.7675531431687 8210.1857073974606 454.7125887784091 -3966.4989428710937 9188.7606488037109 796.31516597353175 -1838.0776858598758 40.324331372785501 -58.715813052145279 569.35881651926172 1815.6836076136999 -3853.0225401505181 5610.6260623168946 -174.2417825450068 -3913.0276879446851 1802.7330750477465 1481.1272136582575 5249.4399508568549 977.04633684856151 4624.7100854492192 312.08096967251407 -1683.2938873940327 -308.46267509091547 4147.5412128113867
leaf_weight=9172 36 45 22099 30 8892 24 43 20 22 20 20 29 117 28653 1335 379 70 23 20 23 28 79 1047 31 41 20 9447 188 17363 114
leaf_count=9172 36 45 22099 30 8892 24 43 20 22 20 20 29 117 28653 1335 379 70 23 20 23 28 79 1047 31 41 20 9447 188 17363 114
internal_value=0 577.685 -165.509 2056.83 468.28 1812.03 6926.06 276.011 4147.8 1528.27 719.384 4221.8 262.035 -45.2074 283.368 1170.36 3571.41 567.251 822.054 4087.41 1614.73 3293.22 1433.28 1589.49 -1007.33 240.753 232.761 -259.255 -395.602 3421.99
internal_weight=0 22143 77287 1525 20618 1452 73 11677 42 1291 8941 49 11635 50752 11518 528 106 422 399 161 1271 124 1147 1078 69 10990 10970 1523 26535 137
internal_count=99430 22143 77287 1525 20618 1452 73 11677 42 1291 8941 49 11635 50752 11518 528 106 422 399 161 1271 124 1147 1078 69 10990 10970 1523 26535 137
is_linear=0
shrinkage=0.1


Tree=23
num_leaves=31
num_cat=0
split_feature=34 34 34 4 29 34 7 27 11 4 4 6 10 35 27 30 8 28 33 35 11 2 8 19 37 34 35 2 26 36
split_gain=7.70409e+11 3.02436e+11 1.64106e+11 1.49141e+11 7.99377e+10 7.45361e+10 6.66556e+10 5.10609e+10 9.91981e+10 1.07008e+11 5.23623e+10 4.25694e+10 4.24951e+10 4.15235e+10 4.0578e+10 4.2084e+10 4.06385e+10 3.94674e+10 3.72173e+10 3.96104e+10 4.86065e+10 3.61685e+10 3.58971e+10 3.66011e+10 3.57341e+10 4.59012e+10 5.45189e+10 3.46781e+10 3.43916e+10 5.7582e+10
threshold=69961.538461538483 158895.60439560443 35120.87912087913 641500.00000000012 295500.00000000006 108791.20879120882 855500.00000000012 101500.00000000001 29500.000000000004 101500.00000000001 238500.00000000003 324500.00000000006 295500.00000000006 19250.000000000004 165500.00000000003 145500.00000000003 468500.00000000006 151500.00000000003 70500.000000000015 69016.666666666672 17500.000000000004 102500.00000000001 199500.00000000003 74500.000000000015 77166.666666666672 57532.967032967041 64516.666666666679 61500.000000000007 126500.00000000001 179642.85714285719
decision_type=2 2 2 8 10 2 8 8 10 10 10 10 10 8 10 8 10 8 10 8 10 10 10 10 10 2 10 10 10 10
left_child=2 5 -1 4 14 18 -5 8 9 -7 21 28 -6 -4 16 -16 17 -3 19 20 -2 -10 27 -24 25 26 -15 -21 -9 -30
right_child=1 3 13 6 12 7 -8 11 10 -11 -12 -13 -14 24 15 -17 -18 -19 -20 22 -22 -23 23 -25 -26 -27 -28 -29 29 -31
leaf_value=-356.04186734501241 6191.8630681818186 4114.1151869773867 2200.8972822980186 9709.088240559895 8469.0928875732425 10894.250024414063 3700.3327865600586 803.27847979631599 1252.1842494673083 1020.9885689871652 -3784.2273193359379 -3994.4663525390629 3273.8878576330239 -91.289668179720948 -2206.1543252634451 1017.4500468913166 6071.3448064630684 1537.1841829815119 97.869756610847219 401.6568597137196 1238.4412337729682 5496.3339099702389 782.12141194661467 6225.4146525065107 -599.47141993255275 121.95030263144673 -2490.1401569406612 -583.18410677345844 326.67173668367468 -3959.2954994201664
leaf_weight=26535 22 64 82 30 20 23 48 3482 458 21 20 20 74 34832 43 696 22 833 6385 9197 199 21 30 21 1161 13057 95 372 1535 32
leaf_count=26535 22 64 82 30 20 23 48 3482 458 21 20 20 74 34832 43 696 22 833 6385 9197 199 21 30 21 1161 13057 95 372 1535 32
internal_value=0 498.02 -155.581 1732.88 1542.4 394.541 6011.39 708.681 1630.29 6182.01 1228.94 609.957 4379.25 -47.5262 1381.56 829.879 1825.19 1721.05 285.891 407.881 1731.54 1438.25 377.473 3023.48 -51.2778 -38.0139 -97.8144 363.371 628.196 239.147
internal_weight=0 23668 75762 1830 1752 21838 78 5612 543 44 499 5069 94 49227 1658 739 919 897 16226 9841 221 479 9620 51 49145 47984 34927 9569 5049 1567
internal_count=99430 23668 75762 1830 1752 21838 78 5612 543 44 499 5069 94 49227 1658 739 919 897 16226 9841 221 479 9620 51 49145 47984 34927 9569 5049 1567
is_linear=0
shrinkage=0.1


Tree=24
num_leaves=31
num_cat=0
split_feature=34 34 34 4 11 9 23 15 9 12 37 1 37 26 34 11 13 36 9 37 37 34 15 15 11 9 35 13 35 8
split_gain=6.31612e+11 2.14507e+11 1.84615e+11 9.43661e+10 1.03431e+11 7.51364e+10 6.30403e+10 6.31541e+10 5.14269e+10 4.86724e+10 5.30029e+10 4.78888e+10 4.58324e+10 4.39821e+10 3.88473e+10 3.76936e+10 6.74002e+10 3.76854e+10 3.56041e+10 4.51106e+10 4.06477e+10 5.47257e+10 3.39676e+10 7.56094e+10 3.36815e+10 3.54095e+10 2.99393e+10 2.92619e+10 2.88189e+10 2.7063e+10
threshold=83862.637362637368 200807.69230769234 40736.263736263747 641500.00000000012 967000.00000000012 120500.00000000001 45500.000000000007 502500.00000000006 64500.000000000007 5500.0000000000009 52166.666666666679 29500.000000000004 85833.333333333358 16500.000000000004 16978.021978021981 56500.000000000007 223500.00000000003 45642.857142857152 67500.000000000015 63166.666666666679 152166.66666666672 133060.43956043958 195500.00000000003 124500.00000000001 182500.00000000003 17500.000000000004 39583.333333333336 103500.00000000001 97650.000000000015 178500.00000000003
decision_type=2 2 2 8 8 8 8 10 10 8 10 2 10 8 2 8 10 10 10 10 10 2 8 10 10 10 10 8 10 10
left_child=2 5 14 6 -5 9 -3 11 12 10 -2 -8 24 -10 -1 16 29 -16 19 -11 21 -20 23 -12 26 -26 -4 -23 -15 -7
right_child=1 3 8 4 -6 15 7 -9 13 18 22 -13 -14 28 17 -17 -18 -19 20 -21 -22 27 -24 -25 25 -27 -28 -29 -30 -31
leaf_value=-453.54164092432097 6652.8428393554686 -3096.2736455502718 51.797353415010072 2721.1121589211857 11295.34131673177 990.4652908534689 6512.1094216086649 6235.9938681112762 1072.8618655201142 -3262.1444369446999 781.05289133899623 1738.5855436527982 -905.33766785475643 146.99020503670542 -201.23511387646894 742.23649855362942 7686.4559497070313 -1128.7613999212806 340.27974117729531 -173.57938827562333 -1271.6135268161172 4605.6846091245998 -2118.2365347055288 5800.0433504671673 5840.6502124023436 87.373252536939546 -135.40088605714365 1442.7653026222165 -3123.1904875578707 4699.4370547087301
leaf_weight=9699 20 23 17976 34 24 136 22 37 525 51 159 470 614 14126 24564 5907 20 446 7181 650 152 39 26 37 20 23 16282 117 27 23
leaf_count=9699 20 23 17976 34 24 136 22 37 525 51 159 470 614 14126 24564 5907 20 446 7181 650 152 39 26 37 20 23 16282 117 27 23
internal_value=0 594.97 -106.767 2432.01 6269.07 517.783 2028.84 2251.67 17.034 324.51 1722.2 1952.04 -48.9916 174.091 -283.657 785.559 2215.19 -217.776 283.21 -398.282 347.001 380.533 1277.99 1728.52 -33.6627 2763.32 -37.1734 2233.5 140.752 1526.98
internal_weight=0 15128 84302 610 58 14518 552 529 49593 8432 242 492 34915 14678 34709 6086 179 25010 8190 701 7489 7337 222 196 34301 43 34258 156 14153 159
internal_count=99430 15128 84302 610 58 14518 552 529 49593 8432 242 492 34915 14678 34709 6086 179 25010 8190 701 7489 7337 222 196 34301 43 34258 156 14153 159
is_linear=0
shrinkage=0.1


Tree=25
num_leaves=31
num_cat=0
split_feature=34 8 34 34 4 1 9 7 12 8 19 4 9 14 36 37 1 9 37 3 36 28 1 6 30 36 15 37 12 24
split_gain=5.1598e+11 2.0386e+11 1.26993e+11 1.17402e+11 6.89022e+10 7.74371e+10 4.82539e+10 8.23444e+10 5.66271e+10 5.57393e+10 4.10414e+10 9.05391e+10 6.57282e+10 5.24959e+10 5.19907e+10 3.92141e+10 4.94004e+10 3.91057e+10 3.8681e+10 1.4117e+11 3.72032e+10 3.65497e+10 3.60505e+10 3.98764e+10 3.53615e+10 3.32426e+10 4.98931e+10 3.16056e+10 5.55691e+10 3.12319e+10
threshold=72186.813186813204 282500.00000000006 125153.84615384617 31840.659340659342 641500.00000000012 217500.00000000003 508000.00000000006 497500.00000000006 860000.00000000012 573500.00000000012 124500.00000000001 31500.000000000004 114500.00000000001 25500.000000000004 85214.285714285725 136166.66666666672 67500.000000000015 50500.000000000007 1.0000000180025095e-35 109500.00000000001 179642.85714285719 35500.000000000007 180500.00000000003 190500.00000000003 174500.00000000003 109214.28571428572 449500.00000000006 40166.666666666679 131500.00000000003 69500.000000000015
decision_type=2 10 2 2 8 2 10 10 8 10 8 10 8 8 8 10 2 10 8 8 8 10 2 8 8 10 10 8 8 8
left_child=3 2 22 -1 10 -6 7 25 9 -8 11 -4 13 -12 -15 16 -13 18 19 -5 -16 -19 27 -24 -14 -3 -27 28 29 -2
right_child=1 6 4 17 5 -7 8 -9 -10 -11 12 15 24 14 20 -17 -18 21 -20 -21 -22 -23 23 -25 -26 26 -28 -29 -30 -31
leaf_value=-313.10579909926872 5278.840195489699 6489.2283271484375 6983.7450060614228 417.98084768018964 1870.5986716068155 8608.6379049549923 7383.7082752046135 -3023.3624726562502 9455.5926970108685 618.87295763739223 4042.0009449834415 6630.3461542038685 355.467123675388 -5284.3624970703131 -277.94734244424791 337.87326777608774 1644.0906359950379 206.17751487589558 -128.65312280098723 8915.7450892857141 -4730.064994659424 -46.432362023319001 -529.10941124126123 -4982.9923350941053 1033.2283277285076 1738.983668813398 6720.1895935058601 270.81817853186527 -2264.4673356119793 1681.6021499213821
leaf_weight=22692 31 25 29 283 66 23 21 25 23 29 23 21 1146 25 305 266 369 9454 30305 21 20 14532 233 22 2345 124 24 16809 30 109
leaf_count=22692 31 25 29 283 66 23 21 25 23 29 23 21 1146 25 305 266 369 9454 30305 21 20 14532 233 22 2345 124 24 16809 30 109
internal_value=0 425.591 391.817 -121.933 856.303 3611.89 3151.47 2341.24 5349.09 3460.1 802.391 1515.78 675.923 -585.84 -889.955 1274.06 1912.58 -42.474 -117.394 1005 -551.924 53.133 266.814 -913.366 810.738 3116.47 2546.75 284.539 1641.2 2478.13
internal_weight=0 22143 21872 77287 4638 89 271 198 73 50 4549 685 3864 373 350 656 390 54595 30609 304 325 23986 17234 255 3491 173 148 16979 170 140
internal_count=99430 22143 21872 77287 4638 89 271 198 73 50 4549 685 3864 373 350 656 390 54595 30609 304 325 23986 17234 255 3491 173 148 16979 170 140
is_linear=0
shrinkage=0.1


Tree=26
num_leaves=31
num_cat=0
split_feature=34 1 34 9 9 11 28 9 8 20 29 19 30 34 35 4 36 13 5 7 9 5 9 11 9 30 35 8 7 27
split_gain=4.24632e+11 1.51878e+11 1.39253e+11 8.35141e+10 8.18953e+10 8.02471e+10 7.04854e+10 5.37255e+10 4.92528e+10 8.11153e+10 4.05837e+10 4.0156e+10 6.03338e+10 3.85588e+10 4.69303e+10 3.75584e+10 3.43917e+10 3.24825e+10 3.7835e+10 3.19752e+10 2.88558e+10 2.81936e+10 2.76612e+10 2.76121e+10 3.30788e+10 2.56435e+10 4.35105e+10 2.51315e+10 3.95979e+10 2.50239e+10
threshold=89961.538461538483 497500.00000000006 51351.648351648357 206500.00000000003 672500.00000000012 489000.00000000006 1022000.0000000001 32500.000000000004 45500.000000000007 62500.000000000007 210500.00000000003 53500.000000000007 76500.000000000015 131434.06593406596 145383.33333333334 263500.00000000006 57642.857142857152 117500.00000000001 3500.0000000000005 158500.00000000003 153500.00000000003 263500.00000000006 331500.00000000006 43500.000000000007 76500.000000000015 147500.00000000003 73550.000000000015 106500.00000000001 108500.00000000001 91500.000000000015
decision_type=2 2 2 10 8 8 8 10 10 8 8 10 10 2 10 10 10 8 8 10 8 10 10 10 10 10 10 10 10 10
left_child=2 3 7 13 5 -3 -6 16 -5 -10 22 12 -4 14 -2 17 -1 23 -19 -16 -20 -22 -11 -15 -25 -14 -27 -12 -29 -13
right_child=1 4 11 8 6 -7 -8 -9 9 10 27 29 25 15 19 -17 -18 18 20 -21 21 -23 -24 24 -26 26 -28 28 -30 -31
leaf_value=-272.06887715463358 352.62180147580699 5345.756726543721 161.3650168417513 -2751.2274933961726 2865.625898881392 -2673.0061920166017 10317.736035156251 -75.924365434314026 6860.8808863146551 656.8601146260246 -1528.1710858154297 18.603535807268496 986.32274086080997 5362.8314538574223 -4853.7768091662174 -1387.9763209966968 -2076.8396307027565 4162.5136218655489 280.24403416822764 -116.09529157366072 877.65931789195338 4565.6688525608615 -3260.0467839050293 -2034.0079386393231 1844.2115704068667 1009.0212338071881 6831.7614315941219 6049.0697367350258 1882.5399317965303 -385.62312060464643
leaf_weight=27095 8392 26 13993 26 22 24 30 24954 29 183 20 18460 532 20 29 81 106 31 1210 28 1603 21 20 24 263 33 21 24 460 1670
leaf_count=27095 8392 26 13993 26 22 24 30 24954 29 183 20 18460 532 20 29 81 106 31 1210 28 1603 21 20 24 263 33 21 24 460 1670
internal_value=0 543.337 -78.6007 511.887 4386.41 1496.75 7164.92 -181.89 1526.27 1677.38 1464.76 76.6055 202.995 445.833 333.198 738.378 -279.102 792.676 687.923 -2526.49 649.916 925.349 270.958 1770.25 1519.9 1197.08 3273.42 1945.6 2089.14 -14.9314
internal_weight=0 12566 86864 12464 102 50 52 52155 762 736 707 34709 14579 11702 8449 3253 27201 3172 2865 57 2834 1624 203 307 287 586 54 504 484 20130
internal_count=99430 12566 86864 12464 102 50 52 52155 762 736 707 34709 14579 11702 8449 3253 27201 3172 2865 57 2834 1624 203 307 287 586 54 504 484 20130
is_linear=0
shrinkage=0.1


Tree=27
num_leaves=31
num_cat=0
split_feature=9 23 3 9 37 8 9 23 23 19 10 23 14 7 19 17 18 26 8 16 14 3 3 21 21 0 19 29 16 2
split_gain=3.32785e+11 1.16386e+11 1.09658e+11 8.50607e+10 5.62101e+10 4.87354e+10 6.13934e+10 3.9845e+10 5.28129e+10 3.86515e+10 3.79364e+10 3.35351e+10 4.77739e+10 4.32882e+10 4.27732e+10 3.8531e+10 3.36482e+10 3.02518e+10 2.95952e+10 3.02492e+10 3.06425e+10 3.61101e+10 2.92831e+10 2.84773e+10 2.64833e+10 3.24575e+10 2.58816e+10 3.11943e+10 2.72936e+10 2.65944e+10
threshold=78500.000000000015 215500.00000000003 -191499.99999999997 37500.000000000007 248333.33333333334 157500.00000000003 508000.00000000006 200500.00000000003 175500.00000000003 292500.00000000006 329000.00000000006 7500.0000000000009 51500.000000000007 138500.00000000003 215500.00000000003 19500.000000000004 167500.00000000003 32500.000000000004 573500.00000000012 238500.00000000003 164500.00000000003 177500.00000000003 106500.00000000001 166500.00000000003 184500.00000000003 629725.50000000012 184500.00000000003 79500.000000000015 7500.0000000000009 80500.000000000015
decision_type=10 10 10 8 10 10 10 10 10 10 10 8 10 10 10 10 10 10 10 10 10 10 10 10 10 2 10 10 10 10
left_child=3 5 -3 7 -5 10 9 8 11 23 17 12 13 -1 26 -14 22 24 19 -4 -21 -22 -17 -7 -2 -26 27 29 -29 -13
right_child=1 2 18 4 -6 6 -8 -9 -10 -11 -12 14 15 -15 -16 16 -18 -19 -20 20 21 -23 -24 -25 25 -27 -28 28 -30 -31
leaf_value=-391.70773586340124 458.21904957115152 7110.8694731841215 929.25592080896558 -12.331911363170747 4828.2900299072271 1158.8500630609556 5576.6073332609958 -3696.4444846413353 3662.4938337053572 -2914.1364244733541 -3860.3650412819607 -188.88485213523523 -2412.9857127898331 4276.689718780518 4326.4266627720426 -838.52574949065024 -4637.0238336181637 191.65464169358816 -2209.6099144345239 6276.9531567382819 1623.435239752745 6040.4496837797624 1916.6717439734418 319.3369750331176 5417.3349512736004 695.44244065155863 -3784.4648934936522 2187.410894908076 242.82015995310314 -1140.8302696947299
leaf_weight=2889 5567 37 264 52403 24 1037 27 33 35 28 22 24706 218 20 21 239 20 10109 21 20 156 21 46 662 24 37 20 92 335 297
leaf_count=2889 5567 37 264 52403 24 1037 27 33 35 28 22 24706 218 20 21 239 20 10109 21 20 156 21 46 662 24 37 20 92 335 297
internal_value=0 388.694 1864.49 -86.1069 -10.116 344.959 844.984 -223.623 -219.663 771.009 289.305 -224.364 -517.809 -359.612 -184.824 -1397.73 -672.07 295.106 1461.76 1629 2566.72 2147.49 -393.827 831.741 480.926 2553.24 -188.547 -185.719 661.795 -200.193
internal_weight=0 18032 519 81398 52427 17513 1754 28971 28938 1727 15759 28903 3432 2909 25471 523 305 15737 482 461 197 177 285 1699 5628 61 25450 25430 427 25003
internal_count=99430 18032 519 81398 52427 17513 1754 28971 28938 1727 15759 28903 3432 2909 25471 523 305 15737 482 461 197 177 285 1699 5628 61 25450 25430 427 25003
is_linear=0
shrinkage=0.1


Tree=28
num_leaves=31
num_cat=0
split_feature=34 34 11 34 37 3 15 23 7 12 23 8 7 15 8 15 35 24 2 6 7 37 15 12 6 37 33 35 33 27
split_gain=3.05618e+11 1.36556e+11 7.03888e+10 5.0596e+10 3.99453e+10 3.80929e+10 7.36354e+10 3.72206e+10 3.93307e+10 3.71821e+10 3.42454e+10 3.87635e+10 4.12654e+10 3.73419e+10 3.49865e+10 4.73487e+10 2.78213e+10 2.70563e+10 2.59759e+10 2.81561e+10 3.26905e+10 4.36604e+10 2.97162e+10 2.49474e+10 2.92249e+10 2.32713e+10 4.46175e+10 3.40267e+10 4.6804e+10 2.30665e+10
threshold=61923.076923076929 145791.20879120883 774000.00000000012 18461.538461538468 68500.000000000015 419500.00000000006 258500.00000000003 87500.000000000015 161500.00000000003 138500.00000000003 73500.000000000015 245500.00000000003 168500.00000000003 203500.00000000003 573500.00000000012 502500.00000000006 150483.33333333337 146500.00000000003 36500.000000000007 1.0000000180025095e-35 90500.000000000015 1.0000000180025095e-35 77500.000000000015 3500.0000000000005 25500.000000000004 48166.666666666679 48500.000000000007 108650.00000000001 100500.00000000001 63500.000000000007
decision_type=2 2 10 2 10 10 8 8 10 10 8 10 10 10 10 10 10 10 10 8 8 10 10 8 8 8 8 10 10 10
left_child=3 7 5 -1 18 10 -7 8 29 -10 13 23 -13 17 15 -14 25 -3 19 20 -5 -22 -23 -12 -25 26 -9 28 -28 -2
right_child=1 2 -4 4 -6 6 -8 16 9 -11 11 12 14 -15 -16 -17 -18 -19 -20 -21 21 22 -24 24 -26 -27 27 -29 -30 -31
leaf_value=-316.63777201087697 273.98551809425948 -2076.9716489438661 5592.5828277587898 155.3552923160853 -605.22724774441747 290.44911792896414 8296.0747035217282 5189.6033283691413 -817.58917030187752 -4895.7367250795714 3397.1301792689733 6358.5721484374999 1523.2627049797907 -5003.7257974243166 -2373.591950683594 6195.8440083821624 -1479.2441308525172 2537.6076594034835 -388.99400958049398 -71.027034627146875 4776.0535640832159 159.06675044468471 3147.7555391533433 -3006.3759672619049 741.49088505198165 277.31299953242939 719.48929573731402 -3192.2395602416996 5738.9777188110356 -26.613746694098559
leaf_weight=10980 3850 27 32 2518 1423 27 20 25 130 27 35 20 225 20 20 24 89 24 2420 50085 33 147 43 21 2250 17038 261 20 20 7576
leaf_count=10980 3850 27 32 2518 1423 27 20 25 130 27 35 20 225 20 20 24 89 24 2420 50085 33 147 43 21 2250 17038 261 20 20 7576
internal_value=0 255.786 929.956 -120.167 -82.0989 874.96 3697.1 192.052 53.0732 -1518.93 825.208 884.491 1976.24 -1341.55 1650.42 1973.63 284.287 94.5951 -68.6244 -53.948 258.129 1418.59 835.454 747.667 706.834 293.326 1130.25 793.095 1076.75 74.6734
internal_weight=0 31781 2745 67649 56669 2713 47 29036 11583 157 2666 2595 289 71 269 249 17453 51 55246 52826 2741 223 190 2306 2271 17364 326 301 281 11426
internal_count=99430 31781 2745 67649 56669 2713 47 29036 11583 157 2666 2595 289 71 269 249 17453 51 55246 52826 2741 223 190 2306 2271 17364 326 301 281 11426
is_linear=0
shrinkage=0.1


Tree=29
num_leaves=31
num_cat=0
split_feature=34 8 34 34 4 1 35 4 36 35 21 35 35 35 8 10 4 13 3 8 1 14 16 3 13 33 16 26 5 34
split_gain=2.49501e+11 1.02699e+11 6.63609e+10 5.48876e+10 5.36028e+10 5.48681e+10 5.46513e+10 8.42718e+10 4.62974e+10 3.70917e+10 3.83305e+10 3.69832e+10 3.48769e+10 3.43084e+10 3.21188e+10 4.84807e+10 3.15065e+10 3.54975e+10 3.50547e+10 3.56798e+10 7.07666e+10 5.44367e+10 4.06555e+10 3.70977e+10 3.16939e+10 3.14206e+10 3.00687e+10 2.868e+10 3.26703e+10 4.86491e+10
threshold=68945.054945054959 282500.00000000006 125153.84615384617 30445.054945054948 641500.00000000012 217500.00000000003 108650.00000000001 82500.000000000015 105071.42857142859 135583.33333333334 492500.00000000006 78650.000000000015 75183.333333333358 19250.000000000004 573500.00000000012 198500.00000000003 435500.00000000006 359000.00000000006 419500.00000000006 72500.000000000015 78500.000000000015 114500.00000000001 163500.00000000003 -422499.99999999994 112500.00000000001 72500.000000000015 155500.00000000003 48500.000000000007 30500.000000000004 111313.18681318683
decision_type=2 10 2 2 8 2 8 10 10 10 10 10 10 8 10 10 10 10 10 8 2 10 8 8 8 10 8 8 10 2
left_child=3 2 25 -1 6 -6 7 -4 -9 10 12 13 -3 -5 15 -11 17 18 19 20 -8 -22 -23 -21 -25 27 -26 28 -2 -30
right_child=1 9 4 11 5 -7 16 8 -10 14 -12 -13 -14 -15 -16 -17 -18 -19 -20 23 21 22 -24 24 26 -27 -28 -29 29 -31
leaf_value=-225.95580014432846 -895.43297434160797 1906.010465881348 8770.0977758789068 2009.4741932938739 1560.7000375978876 7232.4737654976234 -5279.2606093868135 -2651.9593200683594 3292.1344851845192 -2280.0969171697448 7397.0061328125003 -3546.4993025716149 6480.5189770507823 -37.560547577021559 -1808.2016696068549 3027.7738849108737 -2968.308548677885 4529.8505038174717 3701.5870691636032 -3471.7129161005432 -2661.4579683344418 32.554961084436485 4785.0684590092415 1448.5822091220825 116.9958390757613 13.52536130438183 691.98470268478422 248.58481606738721 1274.871952433919 6394.4592184638977
leaf_weight=21350 62 100 20 82 66 23 31 20 38 22 20 30 20 53568 31 79 26 22 34 23 47 54 27 363 1477 7441 2367 11709 258 20
leaf_count=21350 62 100 20 82 66 23 31 20 38 22 20 30 20 53568 31 79 26 22 34 23 47 54 27 363 1477 7441 2367 11709 258 20
internal_value=0 277.779 255.997 -90.3348 595.963 3026.44 548.412 3172.61 1242.45 2210.03 3343.94 -36.3946 2668.43 -34.4318 1007.41 1871.6 502.63 522.933 503.002 478.224 -992.395 45.8304 1616.73 533.503 555.4 175.095 471.054 274.875 1180.26 1643.19
internal_weight=0 24400 24128 75030 4638 89 4549 78 58 272 140 53680 120 53650 132 101 4471 4445 4423 4389 159 128 81 4230 4207 19490 3844 12049 340 278
internal_count=99430 24400 24128 75030 4638 89 4549 78 58 272 140 53680 120 53650 132 101 4471 4445 4423 4389 159 128 81 4230 4207 19490 3844 12049 340 278
is_linear=0
shrinkage=0.1


Tree=30
num_leaves=31
num_cat=0
split_feature=9 9 21 3 18 30 1 25 17 14 10 30 12 37 8 9 1 36 18 22 17 27 30 21 30 10 9 3 15 33
split_gain=2.03535e+11 7.51513e+10 6.20669e+10 7.16449e+10 4.63316e+10 5.08938e+10 4.48855e+10 3.57181e+10 3.33044e+10 6.08195e+10 4.82321e+10 3.47401e+10 3.07917e+10 2.77451e+10 2.71293e+10 2.71009e+10 2.70019e+10 2.4999e+10 2.21511e+10 2.08669e+10 2.05664e+10 2.0527e+10 3.72406e+10 3.0523e+10 3.08749e+10 2.57041e+10 3.89169e+10 2.55843e+10 3.32774e+10 2.32568e+10
threshold=103500.00000000001 46500.000000000007 461500.00000000006 -160499.99999999997 448500.00000000006 314000.00000000006 422500.00000000006 505500.00000000006 6500.0000000000009 61500.000000000007 227500.00000000003 200500.00000000003 203500.00000000003 152166.66666666672 222500.00000000003 1.0000000180025095e-35 306000.00000000006 1.0000000180025095e-35 1.0000000180025095e-35 279500.00000000006 140500.00000000003 98500.000000000015 120500.00000000001 180500.00000000003 123500.00000000001 49500.000000000007 178500.00000000003 22500.000000000004 134500.00000000003 43500.000000000007
decision_type=10 8 10 10 10 10 2 10 8 10 10 10 10 10 10 10 2 10 10 10 8 10 10 10 10 10 10 10 10 8
left_child=1 8 4 -4 5 14 12 -5 9 17 11 -10 16 -14 21 18 -3 -1 -11 -7 -16 22 25 24 -24 27 29 28 -2 -27
right_child=2 6 3 7 -6 19 -8 -9 10 15 -12 -13 13 -15 20 -17 -18 -19 -20 -21 -22 -23 23 -25 -26 26 -28 -29 -30 -31
leaf_value=1080.8528273344041 -198.23463421397742 39.82087437295317 7893.7440599524462 3569.9988380650111 -3103.1287275984482 1449.8640112304688 4773.2399780273436 -1132.2588932291667 -122.60865504733782 -316.91586579353583 4188.4352061345026 3765.0497946034311 -777.7840068641076 -4819.0171593707546 3473.7252058932654 -2.7280227661132814 -3315.2053802490236 -343.41750765229887 -2423.5780761480332 5823.4206888834633 1015.062621136592 225.01245424457352 5355.4410980224611 -2116.0156420898438 1592.2221507320885 2641.7658907053424 1629.5836504618328 696.48176826753331 -3609.4253173828129 444.07480419976565
leaf_weight=128 612 49936 23 35 37 20 20 30 36500 62 26 23 65 23 38 85 24 3311 256 24 325 3994 24 20 238 49 330 359 30 2783
leaf_count=128 612 49936 23 35 37 20 20 30 36500 62 26 23 65 23 38 85 24 3311 256 24 325 3994 24 20 238 49 330 359 30 2783
internal_value=0 -45.0562 454.324 3097.03 428.144 442.914 36.81 1399.73 -146.536 -426.607 -117.095 -120.16 34.9172 -1834.02 425.955 -1588.88 38.2092 -290.406 -2012.85 3835.44 1272.44 389.544 537.382 1649.5 1936.94 462.048 601.856 20.4142 -357.636 482.1
internal_weight=0 90459 8971 88 8883 8846 50068 65 40391 3842 36549 36523 50048 88 8802 403 49960 3439 318 44 363 8439 4445 282 262 4163 3162 1001 642 2832
internal_count=99430 90459 8971 88 8883 8846 50068 65 40391 3842 36549 36523 50048 88 8802 403 49960 3439 318 44 363 8439 4445 282 262 4163 3162 1001 642 2832
is_linear=0
shrinkage=0.1


Tree=31
num_leaves=31
num_cat=0
split_feature=34 1 34 33 9 35 22 20 37 37 34 30 22 26 30 24 6 24 37 37 10 22 34 9 9 3 8 37 16 28
split_gain=1.80198e+11 8.35436e+10 6.11731e+10 5.53856e+10 9.66534e+10 4.85803e+10 1.1612e+11 4.77443e+10 4.22451e+10 4.05081e+10 3.78633e+10 3.70791e+10 4.80362e+10 4.00249e+10 7.4864e+10 3.45428e+10 3.41239e+10 3.34929e+10 2.76989e+10 2.65153e+10 2.88963e+10 4.17566e+10 2.64088e+10 2.51265e+10 2.38138e+10 2.35029e+10 2.48462e+10 4.6351e+10 2.34851e+10 2.293e+10
threshold=60736.26373626374 497500.00000000006 120565.93406593408 663000.00000000012 788000.00000000012 113183.33333333336 124500.00000000001 396000.00000000006 129500.00000000001 60500.000000000007 49543.956043956052 122500.00000000001 72500.000000000015 89500.000000000015 200500.00000000003 276500.00000000006 97500.000000000015 57500.000000000007 138500.00000000003 50500.000000000007 98500.000000000015 33500.000000000007 171978.02197802201 10500.000000000002 56500.000000000007 -179499.99999999997 198500.00000000003 81833.333333333358 36500.000000000007 136500.00000000003
decision_type=2 2 2 10 8 8 10 10 10 8 2 8 10 8 10 10 10 10 10 8 10 8 2 8 8 10 10 10 8 10
left_child=9 2 8 4 7 6 16 -3 15 10 23 12 -7 14 18 19 -4 -14 29 20 -2 -22 -19 -1 25 -21 28 -28 -27 -13
right_child=1 3 5 -5 -6 11 -8 -9 -10 -11 -12 13 17 -15 -16 -17 -18 22 -20 24 21 -23 -24 -25 -26 26 27 -29 -30 -31
leaf_value=-282.2517812778193 441.40454790988929 -908.81506979054416 -2353.7428164062503 -1175.14130859375 9164.2947365089694 -2945.9250184106045 8414.8540452223569 5192.1619522758156 -908.47714840845401 -318.28441956475712 92.729053004838235 1063.7182398223877 -3188.0549080141132 492.3356850603663 7773.3624165852862 4095.2647771661937 2156.3030625287224 30.825536456821471 -1060.6077786690848 -1773.1642454083046 6062.5278359153053 1258.9808980305991 3240.328103298611 -77.73682054154564 145.19267066187533 -1228.3033377138775 5185.6898784179684 -22.375393789785882 -82.664534744900237 5144.3491652715784
leaf_weight=7076 631 29 25 24 27 61 26 23 394 7302 11664 40 31 4667 21 22 51 508 35 89 22 102 27 39777 24289 195 25 54 2172 21
leaf_count=7076 631 29 25 24 27 61 26 23 394 7302 11664 40 31 4667 21 22 51 508 35 89 22 102 27 39777 24289 195 25 54 2172 21
internal_value=0 188.387 179.646 3032.01 4310.13 484.121 2646.22 1789.69 119.686 -96.2013 -68.4888 443.365 -279.718 538.133 2364.95 134.363 672.735 7.62991 1181.86 131.203 715.653 2111.22 192.8 -108.624 114.753 -176.901 -118.82 1625.75 -177.045 2468.53
internal_weight=0 33611 33508 103 79 5513 102 52 27995 65819 58517 5411 627 4784 117 27601 76 566 96 27579 755 124 535 46853 26824 2535 2446 79 2367 61
internal_count=99430 33611 33508 103 79 5513 102 52 27995 65819 58517 5411 627 4784 117 27601 76 566 96 27579 755 124 535 46853 26824 2535 2446 79 2367 61
is_linear=0
shrinkage=0.1


Tree=32
num_leaves=31
num_cat=0
split_feature=9 1 20 20 9 1 25 30 12 20 7 19 29 10 20 29 11 15 25 11 7 18 27 18 30 15 2 1 2 6
split_gain=1.40978e+11 5.49843e+10 4.96822e+10 7.33382e+10 4.69753e+10 3.85419e+10 3.11164e+10 4.09617e+10 3.00873e+10 6.35047e+10 2.75188e+10 2.60155e+10 3.04304e+10 2.48867e+10 2.40662e+10 2.38309e+10 2.76544e+10 2.53497e+10 2.33012e+10 2.32717e+10 5.74128e+10 2.20816e+10 2.171e+10 2.054e+10 2.05215e+10 2.3021e+10 1.94124e+10 1.8796e+10 1.92431e+10 1.91492e+10
threshold=98500.000000000015 480500.00000000006 607000.00000000012 805000.00000000012 48500.000000000007 327500.00000000006 530500.00000000012 314000.00000000006 133500.00000000003 204500.00000000003 26500.000000000004 146500.00000000003 225500.00000000003 319000.00000000006 91500.000000000015 7500.0000000000009 67500.000000000015 195500.00000000003 90500.000000000015 175500.00000000003 95500.000000000015 133500.00000000003 85500.000000000015 67500.000000000015 82500.000000000015 16500.000000000004 11500.000000000002 190500.00000000003 3500.0000000000005 215500.00000000003
decision_type=10 2 10 10 8 2 10 10 10 10 10 10 10 10 10 8 10 10 8 10 10 10 10 10 10 10 10 2 10 10
left_child=1 4 6 -4 8 11 7 -2 9 15 14 12 27 -9 -10 16 -1 19 23 24 -21 -13 -18 -12 -17 -26 -15 29 -29 -6
right_child=2 -3 3 -5 5 -7 -8 13 10 -11 18 21 -14 26 -16 17 22 -19 -20 20 -22 -23 -24 -25 25 -27 -28 28 -30 -31
leaf_value=-304.91468915377214 326.04605314689508 4745.2780293782553 8178.817255859376 54.510677734375001 32.365184898717594 -3978.1095062255863 -3510.0697602771579 5247.7655664062504 2265.3678576017683 4147.4990213448664 -1564.9525596031776 -506.0470979931988 3524.1911787109379 -363.00088980538504 -1598.3480255126954 -100.99594327773021 -857.55854508578784 -2548.1676550002326 -941.0508076911425 -442.59377440917189 5946.2977028586647 -2781.6091613769531 -3233.1344997336651 -4901.9030022321431 1994.7281728891228 219.82086878773981 3606.4801447088066 1556.0063918787639 -822.28985318270588 -1906.4377981148516
leaf_weight=2969 10182 24 20 25 45562 24 21 25 38 35 39 237 25 28 28 38909 128 42 137 39 22 52 55 35 91 371 22 150 44 51
leaf_count=2969 10182 24 20 25 45562 24 21 25 38 35 39 237 25 28 28 38909 128 42 137 39 22 52 55 35 91 371 22 150 44 51
internal_value=0 -40.5288 349.84 3665.31 -41.8182 28.2299 335.324 343.197 -117.098 -110.353 -1155.93 30.3147 36.2786 2671.64 626.216 -113.849 -378.452 -92.7203 -1713.38 -90.105 1861.6 -915.491 -1571.53 -3143.24 -93.1289 569.424 1383.57 34.375 1016.6 30.1974
internal_weight=0 89107 10323 45 89083 46145 10278 10257 42938 42661 277 46121 45832 75 66 42626 3152 39474 211 39432 61 289 183 74 39371 462 50 45807 194 45613
internal_count=99430 89107 10323 45 89083 46145 10278 10257 42938 42661 277 46121 45832 75 66 42626 3152 39474 211 39432 61 289 183 74 39371 462 50 45807 194 45613
is_linear=0
shrinkage=0.1


Tree=33
num_leaves=31
num_cat=0
split_feature=34 5 9 12 34 5 3 13 9 26 6 7 5 30 14 14 37 12 22 1 9 34 13 37 34 19 21 35 5 31
split_gain=1.28743e+11 7.12175e+10 4.2484e+10 3.71053e+10 3.34823e+10 4.09912e+10 4.73926e+10 4.1197e+10 2.96686e+10 2.78753e+10 3.23238e+10 2.93727e+10 2.67547e+10 2.6286e+10 3.06074e+10 2.6199e+10 2.59693e+10 3.4973e+10 4.64786e+10 4.03946e+10 3.47884e+10 3.60756e+10 3.31092e+10 2.58234e+10 2.51906e+10 2.37874e+10 7.36279e+10 2.30429e+10 2.29801e+10 2.29519e+10
threshold=81582.417582417591 788000.00000000012 48500.000000000007 167500.00000000003 177840.65934065936 594000.00000000012 -160499.99999999997 381000.00000000006 364000.00000000006 17500.000000000004 136500.00000000003 88500.000000000015 135500.00000000003 131500.00000000003 492500.00000000006 105500.00000000001 83833.333333333358 30500.000000000004 97500.000000000015 104500.00000000001 59500.000000000007 122829.67032967033 44500.000000000007 87166.666666666672 8675.8241758241784 46500.000000000007 134500.00000000003 97650.000000000015 546500.00000000012 60500.000000000007
decision_type=2 10 10 10 2 10 8 10 10 8 10 10 10 8 10 10 10 8 10 2 8 2 8 10 2 10 10 10 8 8
left_child=2 4 3 15 8 6 7 -6 16 10 12 25 -4 -8 28 24 17 18 22 -20 21 -19 -2 -17 -1 26 -11 -13 -15 -22
right_child=1 -3 9 -5 5 -7 13 -9 -10 11 -12 27 -14 14 -16 23 -18 20 19 -21 29 -23 -24 -25 -26 -27 -28 -29 -30 -31
leaf_value=-430.601726200673 -2787.6599310302736 4763.6669335937504 359.96180435964038 -2752.2167713093313 1712.4478140024039 -3331.8299519856773 -2726.1584894353696 7294.7269293212885 3963.5479451497399 150.29341826456186 4228.6968282948374 -340.78623509970618 3248.9669311523439 586.7868373471681 4374.3963548743213 -651.97581177353868 139.01317356125963 -399.51203333336542 8100.2438146972654 1820.6885742187501 2263.5467310301015 -4627.0533610026041 1963.5981662819604 -3274.5103904030543 -84.177191503067831 -22.139857847435227 4954.3668924331669 -3399.6472753906255 2848.6980896645405 439.8952333493807
leaf_weight=2195 20 35 1120 53 39 24 22 20 21 10458 23 1652 33 1013 23 256 12177 127 20 21 71 24 55 44 48014 19299 32 25 47 2467
leaf_count=2195 20 35 1120 53 39 24 22 20 21 10458 23 1652 33 1013 23 256 12177 127 20 21 71 24 55 44 48014 19299 32 25 47 2467
internal_value=0 257.674 -50.2501 -107.664 247.933 758.969 843.316 3604.75 207.467 38.6831 516.695 20.8181 442.648 695.873 765.388 -104.889 202.202 476.517 2176.59 4883.89 403.178 -1071.44 696.596 -1036.61 -99.3219 43.742 164.948 -386.386 687.079 490.911
internal_weight=0 16226 83204 50562 16191 1188 1164 59 15003 32642 1176 31466 1153 1105 1083 50509 14982 2805 116 41 2689 151 75 300 50209 29789 10490 1677 1060 2538
internal_count=99430 16226 83204 50562 16191 1188 1164 59 15003 32642 1176 31466 1153 1105 1083 50509 14982 2805 116 41 2689 151 75 300 50209 29789 10490 1677 1060 2538
is_linear=0
shrinkage=0.1


Tree=34
num_leaves=31
num_cat=0
split_feature=34 5 34 35 27 36 6 6 4 16 6 20 17 16 17 3 24 5 1 34 2 18 36 13 1 13 17 29 1 24
split_gain=1.10642e+11 6.01436e+10 4.35857e+10 3.13803e+10 3.08193e+10 5.61184e+10 3.041e+10 2.86824e+10 6.97307e+10 4.68932e+10 2.85578e+10 2.89488e+10 3.4232e+10 2.74476e+10 3.75237e+10 4.00469e+10 2.63356e+10 2.50048e+10 3.92669e+10 2.33805e+10 2.44167e+10 2.22215e+10 2.46639e+10 2.15042e+10 2.1076e+10 2.54244e+10 5.08592e+10 2.04556e+10 2.0128e+10 2.00878e+10
threshold=59532.967032967041 788000.00000000012 135483.51648351652 64516.666666666679 63500.000000000007 179642.85714285719 225500.00000000003 118500.00000000001 1.0000000180025095e-35 84500.000000000015 181500.00000000003 204500.00000000003 72500.000000000015 125500.00000000001 96500.000000000015 -54499.999999999993 129500.00000000001 594000.00000000012 515000.00000000006 11302.197802197805 34500.000000000007 2500.0000000000005 82357.142857142884 106500.00000000001 100500.00000000001 107500.00000000001 136500.00000000003 123500.00000000001 278500.00000000006 249500.00000000003
decision_type=2 10 2 10 10 10 10 8 8 8 10 10 10 10 8 10 10 10 2 2 10 8 10 10 2 8 10 8 2 10
left_child=3 2 4 19 13 6 10 8 -4 -10 11 -6 -13 28 16 23 -15 18 29 -1 21 -21 -23 -16 -11 26 -26 -8 -2 -9
right_child=1 -3 7 -5 5 -7 27 17 9 24 -12 12 -14 14 15 -17 -18 -19 -20 20 -22 22 -24 -25 25 -27 -28 -29 -30 -31
leaf_value=-298.01770863971217 174.1483260888146 4287.3002301897322 5829.8100040435793 -1406.9306410487764 -2.0378734317155121 -4474.7068324497768 969.84380337027619 317.26378799140224 -2906.6262110216867 -1278.1358671965424 -1586.5968667730822 5433.3505914306643 763.73456300709358 253.69714853006695 6210.0620596749441 949.12929717233897 -2928.4899952855608 -2892.7674252717393 4078.9554460196664 243.04311328663175 -348.71822806366322 -55.690242546981317 -3404.6275701349437 2457.7093183244979 7559.3250390625008 1109.5619809110237 851.80635047325723 4840.8772680664069 -2786.2433758279553 1436.7963160346537
leaf_weight=4331 15933 35 32 177 14410 28 43 2801 29 27 113 20 73 252 21 331 29 23 29 2584 2747 54860 22 56 20 165 26 20 23 170
leaf_count=4331 15933 35 32 177 14410 28 43 2801 29 27 113 20 73 252 21 331 29 23 29 2584 2747 54860 22 56 20 165 26 20 23 170
internal_value=0 144.047 139.864 -77.2503 103.369 -2.10801 6.42341 484.296 1418.61 889.923 -3.02624 9.31213 1767.95 196.565 814.529 1426.97 -74.7136 391.885 417.067 -73.6039 -57.4622 -43.5396 -57.0327 3481.08 1352.53 1689.15 3768.12 2198.74 169.881 381.323
internal_weight=0 34709 34674 64721 31352 14707 14679 3322 299 267 14616 14503 93 16645 689 408 281 3023 3000 64544 60213 57466 54882 77 238 211 46 63 15956 2971
internal_count=99430 34709 34674 64721 31352 14707 14679 3322 299 267 14616 14503 93 16645 689 408 281 3023 3000 64544 60213 57466 54882 77 238 211 46 63 15956 2971
is_linear=0
shrinkage=0.1


Tree=35
num_leaves=31
num_cat=0
split_feature=34 5 9 37 27 22 18 36 16 20 20 9 3 8 18 5 7 30 19 29 3 8 19 21 16 34 10 22 30 2
split_gain=9.14472e+10 4.45137e+10 3.90301e+10 2.87564e+10 2.73692e+10 5.92733e+10 3.88301e+10 4.08032e+10 3.31621e+10 4.65506e+10 3.03505e+10 2.70636e+10 2.60711e+10 4.54588e+10 3.10654e+10 2.69736e+10 2.45298e+10 2.41909e+10 3.72637e+10 4.76523e+10 3.36182e+10 2.7032e+10 2.32988e+10 3.91417e+10 2.74698e+10 2.21377e+10 5.16913e+10 2.91503e+10 2.19617e+10 2.16132e+10
threshold=99912.087912087925 788000.00000000012 52500.000000000007 100166.66666666667 102500.00000000001 392000.00000000006 385500.00000000006 73642.857142857145 82500.000000000015 153500.00000000003 30500.000000000004 129500.00000000001 -262499.99999999994 356500.00000000006 57500.000000000007 311500.00000000006 126500.00000000001 174500.00000000003 217500.00000000003 158500.00000000003 -20499.999999999996 6500.0000000000009 46500.000000000007 132500.00000000003 58500.000000000007 126521.97802197804 148500.00000000003 122500.00000000001 66500.000000000015 -136499.99999999997
decision_type=2 10 10 10 10 10 10 8 8 10 8 10 8 10 10 10 10 10 10 10 10 10 10 10 10 2 10 10 10 10
left_child=2 4 3 -1 5 6 7 -2 9 11 16 -9 14 15 -12 -14 -10 18 -6 20 -20 -19 23 29 -25 26 27 -23 -26 -4
right_child=1 -3 22 -5 17 -7 -8 8 10 -11 12 -13 13 -15 -16 -17 -18 21 19 -21 -22 25 -24 24 28 -27 -28 -29 -30 -31
leaf_value=-75.837383590160698 4189.1433627424576 3858.5702622767858 -2474.7158970986643 -1032.4479579062402 56.935028078076677 5754.6745710100449 -3761.2893801602449 -930.89256946354692 4606.8179731369019 -4935.7277343750002 -3249.3819369432404 1850.6639184039575 484.61476565191055 4657.9684999319225 776.31389668782549 -2575.5612073174839 208.36426362537205 3881.5708068847657 -5447.4588459995821 797.24416797114361 -1422.9096286549288 -1431.9187342717098 -0.82576754969176458 5153.4967708587646 -513.93345528738837 627.86656378248722 -4873.2883261718753 3646.1549610900884 3141.0913787841801 169.7503987886187
leaf_weight=56500 29 35 31 316 3464 21 22 146 32 24 41 46 4253 26 36 29 21 24 35 51 51 26 23024 24 35 815 25 20 31 10197
leaf_count=56500 29 35 31 316 3464 21 22 146 32 24 41 46 4253 26 36 29 21 24 35 51 51 26 23024 24 35 815 25 20 31 10197
internal_value=0 299.049 -30.7547 -81.1579 285.561 453.734 430.074 449.764 426.464 -783.506 485.354 -264.478 456.603 489.202 -1367.24 463.89 2864.03 109.373 -7.03889 -1624.6 -3060.81 570.033 55.1343 180.006 2256.33 480.33 -1213.23 775.939 1202.82 161.735
internal_weight=0 9272 90158 56816 9237 4726 4705 4683 4654 216 4438 192 4385 4308 77 4282 53 4511 3601 137 86 910 33342 10318 90 886 71 46 66 10228
internal_count=99430 9272 90158 56816 9237 4726 4705 4683 4654 216 4438 192 4385 4308 77 4282 53 4511 3601 137 86 910 33342 10318 90 886 71 46 66 10228
is_linear=0
shrinkage=0.1


Tree=36
num_leaves=31
num_cat=0
split_feature=34 4 37 1 5 12 32 2 21 33 27 23 23 12 23 17 3 1 9 4 34 34 21 27 5 27 30 27 0 37
split_gain=7.79301e+10 4.00926e+10 3.35363e+10 3.06599e+10 9.19433e+10 5.42163e+10 5.26333e+10 3.95553e+10 3.99736e+10 3.30562e+10 3.25939e+10 5.24208e+10 3.11008e+10 3.76315e+10 3.04853e+10 3.17931e+10 4.5156e+10 2.94624e+10 2.91701e+10 2.81578e+10 3.87459e+10 2.78084e+10 2.59778e+10 2.40389e+10 2.36167e+10 2.30705e+10 2.29784e+10 3.55746e+10 3.59325e+10 7.39102e+10
threshold=61769.230769230773 745000.00000000012 59833.333333333336 26500.000000000004 261500.00000000003 240500.00000000003 158500.00000000003 184500.00000000003 204500.00000000003 134500.00000000003 44500.000000000007 82500.000000000015 152500.00000000003 250500.00000000003 543500.00000000012 379000.00000000006 -50499.999999999993 480500.00000000006 72500.000000000015 90500.000000000015 145791.20879120883 48895.604395604401 261500.00000000003 120500.00000000001 179500.00000000003 63500.000000000007 121500.00000000001 129500.00000000001 607021.50000000012 136166.66666666672
decision_type=2 10 8 2 10 10 10 10 10 8 8 10 10 10 10 10 10 2 10 10 2 2 10 8 10 10 8 10 2 10
left_child=2 3 21 4 5 6 7 8 10 -8 11 -2 13 17 15 26 -17 22 -15 20 24 -1 25 -24 -12 -5 -14 28 29 -28
right_child=1 -3 -4 12 -6 -7 9 -9 -10 -11 19 -13 14 18 -16 16 -18 -19 -20 -21 -22 -23 23 -25 -26 -27 27 -29 -30 -31
leaf_value=-69.54299340641829 599.46609100877197 3332.3991005139478 -243.01900319203489 173.91024689796927 7190.7117925734756 5426.3872935901991 -302.8500461887669 4993.8064916992189 4450.8208623046876 -4769.7107446289065 623.87245675178428 6017.8120755709133 -393.66437213204125 -4930.4051083519344 -2527.7700348825165 6707.8138073730479 531.32413708917034 3519.0373466796877 -927.9385852340364 -632.45203518084634 -3629.8372355143229 99.215054437588833 408.07894714355473 -4131.1717438834057 4118.5477337646489 -5.479067829987418 8625.4714605712888 343.59808868089294 1004.3961692722113 1367.3262482338764
leaf_weight=46078 57 39 8815 15058 21 22 37 20 25 30 584 26 264 21 33 20 29 25 137 268 21 12390 20 28 20 13684 20 1244 347 47
leaf_count=46078 57 39 8815 15058 21 22 37 20 25 30 584 26 264 21 33 20 29 25 137 268 21 12390 20 28 20 13684 20 1244 347 47
internal_value=0 128.079 -61.1944 124.186 635.594 511.578 412.198 590.37 502.39 -2302.94 401.251 2296.78 105.514 79.1621 486.505 536.972 3052.34 87.6012 -1459.91 225.071 592.777 -33.7813 84.6215 -2239.82 739.59 88.5034 472.845 610.817 1413.77 3533.94
internal_weight=0 32147 67283 32108 1131 1110 1088 1021 1001 67 976 83 30977 28973 2004 1971 49 28815 158 893 625 58468 28790 48 604 28742 1922 1658 414 67
internal_count=99430 32147 67283 32108 1131 1110 1088 1021 1001 67 976 83 30977 28973 2004 1971 49 28815 158 893 625 58468 28790 48 604 28742 1922 1658 414 67
is_linear=0
shrinkage=0.1


end of trees

feature_importances:
mean_income_all=222
income_6_day_before=92
mean_income_last_3_days=66
money_in=59
mean_income_last_30_days=52
income_1_day_before=40
income_13_day_before=40
income_5_day_before=38
income_27_day_before=32
income_20_day_before=31
mean_income_last_7_days=26
income_3_day_before=25
income_2_day_before=23
income_4_day_before=23
yesterday_growth_of_income_growth=22
income_12_day_before=22
income_9_day_before=21
income_16_day_before=21
income_15_day_before=18
income_18_day_before=18
income_24_day_before=18
yesterday_income_growth=17
income_8_day_before=17
income_19_day_before=17
income_7_day_before=16
income_26_day_before=16
income_17_day_before=15
income_10_day_before=14
income_30_day_before=14
income_14_day_before=13
income_23_day_before=11
income_11_day_before=10
income_25_day_before=10
income_21_day_before=9
income_22_day_before=9
TID=7
income_28_day_before=5
income_29_day_before=1

parameters:
[boosting: gbdt]
[objective: regression]
[metric: l2]
[tree_learner: serial]
[device_type: cpu]
[data: ]
[valid: ]
[num_iterations: 37]
[learning_rate: 0.1]
[num_leaves: 31]
[num_threads: -1]
[deterministic: 0]
[force_col_wise: 0]
[force_row_wise: 0]
[histogram_pool_size: -1]
[max_depth: -1]
[min_data_in_leaf: 20]
[min_sum_hessian_in_leaf: 0.001]
[bagging_fraction: 0.7]
[pos_bagging_fraction: 1]
[neg_bagging_fraction: 1]
[bagging_freq: 0]
[bagging_seed: 3014]
[feature_fraction: 0.7]
[feature_fraction_bynode: 1]
[feature_fraction_seed: 29554]
[extra_trees: 0]
[extra_seed: 19515]
[early_stopping_round: 0]
[first_metric_only: 0]
[max_delta_step: 0]
[lambda_l1: 0]
[lambda_l2: 0]
[linear_lambda: 0]
[min_gain_to_split: 0]
[drop_rate: 0.1]
[max_drop: 50]
[skip_drop: 0.5]
[xgboost_dart_mode: 0]
[uniform_drop: 0]
[drop_seed: 12050]
[top_rate: 0.2]
[other_rate: 0.1]
[min_data_per_group: 100]
[max_cat_threshold: 32]
[cat_l2: 10]
[cat_smooth: 10]
[max_cat_to_onehot: 4]
[top_k: 20]
[monotone_constraints: ]
[monotone_constraints_method: basic]
[monotone_penalty: 0]
[feature_contri: ]
[forcedsplits_filename: ]
[refit_decay_rate: 0.9]
[cegb_tradeoff: 1]
[cegb_penalty_split: 0]
[cegb_penalty_feature_lazy: ]
[cegb_penalty_feature_coupled: ]
[path_smooth: 0]
[interaction_constraints: ]
[verbosity: -1]
[saved_feature_importance_type: 0]
[linear_tree: 0]
[max_bin: 255]
[max_bin_by_feature: ]
[min_data_in_bin: 3]
[bin_construct_sample_cnt: 200000]
[data_random_seed: 126]
[is_enable_sparse: 1]
[enable_bundle: 1]
[use_missing: 1]
[zero_as_missing: 0]
[feature_pre_filter: 1]
[pre_partition: 0]
[two_round: 0]
[header: 0]
[label_column: ]
[weight_column: ]
[group_column: ]
[ignore_column: ]
[categorical_feature: ]
[forcedbins_filename: ]
[precise_float_parser: 0]
[objective_seed: 25204]
[num_class: 1]
[is_unbalance: 0]
[scale_pos_weight: 1]
[sigmoid: 1]
[boost_from_average: 1]
[reg_sqrt: 0]
[alpha: 0.9]
[fair_c: 1]
[poisson_max_delta_step: 0.7]
[tweedie_variance_power: 1.5]
[lambdarank_truncation_level: 30]
[lambdarank_norm: 1]
[label_gain: ]
[eval_at: ]
[multi_error_top_k: 1]
[auc_mu_weights: ]
[num_machines: 1]
[local_listen_port: 12400]
[time_out: 120]
[machine_list_filename: ]
[machines: ]
[gpu_platform_id: -1]
[gpu_device_id: -1]
[gpu_use_dp: 0]
[num_gpu: 1]

end of parameters

pandas_categorical:[]
