tree
version=v3
num_class=1
num_tree_per_iteration=1
label_index=0
max_feature_idx=37
objective=regression
feature_names=TID money_in yesterday_income_growth yesterday_growth_of_income_growth income_1_day_before income_2_day_before income_3_day_before income_4_day_before income_5_day_before income_6_day_before income_7_day_before income_8_day_before income_9_day_before income_10_day_before income_11_day_before income_12_day_before income_13_day_before income_14_day_before income_15_day_before income_16_day_before income_17_day_before income_18_day_before income_19_day_before income_20_day_before income_21_day_before income_22_day_before income_23_day_before income_24_day_before income_25_day_before income_26_day_before income_27_day_before income_28_day_before income_29_day_before income_30_day_before mean_income_all mean_income_last_30_days mean_income_last_7_days mean_income_last_3_days
feature_infos=[406136:699664] [0:2697000] [-2214000:2697000] [-4911000:2697000] [0:2697000] [0:2697000] [0:2697000] [0:2697000] [0:2697000] [0:2697000] [0:2697000] [0:2697000] [0:2697000] [0:2697000] [0:2697000] [0:2697000] [0:2697000] [0:2697000] [0:2697000] [0:2697000] [0:2697000] [0:2697000] [0:2697000] [0:2697000] [0:2697000] [0:2697000] [0:2697000] [0:2697000] [0:2697000] [0:2697000] [0:2697000] [0:2697000] [0:2697000] [0:2697000] [2274.7252747252742:734461.5384615385] [0:843500] [0:917142.85714285716] [0:1247000]
tree_sizes=2883 2896 2852 2849 2856 2857 2907 2851 2863 2858 2844 2846 2827 2848 2815 2845 2839 2872 2860 2831 2866 2881 2844 2845 2845 2863 2839 2872 2858 2830 2839 2875 2855

Tree=0
num_leaves=31
num_cat=0
split_feature=37 1 37 8 1 8 8 37 8 1 8 6 21 8 9 37 37 4 37 8 35 18 15 1 15 1 35 1 37 37
split_gain=6.69286e+13 2.39394e+13 1.80031e+13 1.02395e+13 4.59892e+12 3.94647e+12 2.296e+12 2.29194e+12 1.57526e+12 1.473e+12 1.42872e+12 1.10398e+12 9.52721e+11 8.97103e+11 7.74985e+11 7.21496e+11 6.79701e+11 6.05358e+11 5.76353e+11 4.89172e+11 4.81182e+11 4.76144e+11 3.9559e+11 3.7757e+11 3.72543e+11 3.50601e+11 3.31638e+11 3.30959e+11 2.82748e+11 2.63929e+11
threshold=83833.333333333358 316500.00000000006 40833.333333333336 133500.00000000003 62500.000000000007 573500.00000000012 27500.000000000004 196166.66666666669 100500.00000000001 166500.00000000003 52500.000000000007 373000.00000000006 312500.00000000006 70500.000000000015 154500.00000000003 1.0000000180025095e-35 19833.333333333339 177500.00000000003 109833.33333333336 212500.00000000003 55683.333333333336 160500.00000000003 95500.000000000015 762500.00000000012 238500.00000000003 80500.000000000015 88150.000000000015 40500.000000000007 57166.666666666679 107500.00000000001
decision_type=10 2 8 10 2 10 10 10 8 2 10 10 10 8 10 10 10 8 10 10 10 10 10 2 10 2 10 2 10 10
left_child=2 3 6 8 10 11 15 14 22 13 27 24 19 -6 29 21 -17 -11 -10 -9 -8 -1 -2 -7 -3 -15 28 -4 -12 -5
right_child=1 5 4 7 9 23 20 12 18 17 26 -13 -14 25 -16 16 -18 -19 -20 -21 -22 -23 -24 -25 -26 -27 -28 -29 -30 -31
leaf_value=55665.005213939578 58825.049958262214 70791.135524949525 54507.914543241779 61392.120962908331 56769.995526470491 111655.27897604386 54165.913101080499 68134.057664047607 60618.868246728562 61364.253884823913 55938.450888026608 96523.903649468702 90567.957661941298 57682.459195926713 67220.617091731285 51943.941625235588 53195.255029295942 70449.547962976256 62805.257594202478 74152.987525925753 59067.537963180359 71407.587167149628 60540.958789755874 128390.4426135782 86294.362076423829 58992.696394329054 65633.484643862364 55369.461556771574 56870.226853251392 64578.281335477266
leaf_weight=488 4497 31 6691 311 8749 26 14927 255 2373 261 6600 76 27 5037 1307 10465 7418 102 2451 287 203 20 1916 28 31 3435 39 13365 6429 1585
leaf_count=488 4497 31 6691 311 8749 26 14927 255 2373 261 6600 76 27 5037 1307 10465 7418 102 2451 287 203 20 1916 28 31 3435 39 13365 6429 1585
internal_value=56219.5 62326.7 55117.4 61877.9 56306 97413.7 53319.2 66386.1 60364.6 57613.1 55612.2 88445.4 72234.5 57480.2 65347.1 52568.6 52463 63917.1 61729.7 71321.2 54231.7 56284.8 59337.7 120333 78542.7 58213.7 56425.8 55082 56398.2 64055.7
internal_weight=0 15201 84229 15009 50708 192 33521 3772 11237 17584 33124 138 569 17221 3203 18391 17883 363 4824 542 15130 508 6413 54 62 8472 13068 20056 13029 1896
internal_count=99430 15201 84229 15009 50708 192 33521 3772 11237 17584 33124 138 569 17221 3203 18391 17883 363 4824 542 15130 508 6413 54 62 8472 13068 20056 13029 1896
is_linear=0
shrinkage=1


Tree=1
num_leaves=31
num_cat=0
split_feature=37 37 37 8 1 8 37 7 8 8 1 27 8 7 37 8 37 8 4 7 7 1 35 1 4 18 37 7 15 8
split_gain=5.42708e+13 1.92652e+13 1.53446e+13 7.9956e+12 3.4193e+12 2.97402e+12 2.6249e+12 2.20294e+12 1.37694e+12 1.18931e+12 1.12694e+12 9.86189e+11 7.89305e+11 7.77905e+11 7.74793e+11 7.16199e+11 5.17551e+11 4.6422e+11 4.35528e+11 3.84807e+11 3.8128e+11 3.56985e+11 3.48935e+11 3.38137e+11 3.36043e+11 3.23776e+11 2.22939e+11 2.21234e+11 2.20514e+11 2.18582e+11
threshold=86500.000000000015 339833.33333333337 44500.000000000007 140500.00000000003 65500.000000000007 573500.00000000012 26166.666666666668 222500.00000000003 103500.00000000001 57500.000000000007 194500.00000000003 392000.00000000006 75500.000000000015 157500.00000000003 1.0000000180025095e-35 294000.00000000006 117500.00000000001 40500.000000000007 38500.000000000007 78500.000000000015 20500.000000000004 672500.00000000012 63716.666666666679 106500.00000000001 256500.00000000003 132500.00000000003 220833.33333333334 68500.000000000015 130500.00000000001 178500.00000000003
decision_type=10 10 8 10 2 8 10 10 8 10 2 8 8 10 10 10 10 10 10 10 10 2 10 2 8 10 10 10 8 10
left_child=2 3 6 8 9 11 14 13 19 18 12 -3 -6 28 25 -9 -10 -8 -4 -2 -16 -7 -19 -14 -12 -1 -18 -11 -5 -15
right_child=1 5 4 7 10 21 17 15 16 27 24 -13 23 29 20 -17 26 22 -20 -21 -22 -23 -24 -25 -26 -27 -28 -29 -30 -31
leaf_value=-442.45129186502265 1646.4285906010955 15379.800698390152 -1844.5082047263452 5568.0583469238281 755.7940333601382 47381.350624999999 -2035.5147802136573 15314.351617872102 4362.4367878919375 280.0165521658032 6828.6609531696031 35888.264159854843 1937.6193360659815 9220.7933891308767 -3807.8964213079544 27953.322398290096 6363.2673973614756 -1147.2982739163624 -564.50728690390463 3486.7837986933723 -2789.5626305163532 64044.325086805555 5449.1833642276724 4032.2305702587396 16813.184547601744 9876.4157066345215 16057.033561197917 1333.5069242664945 8106.3008480286489 11801.644860578639
leaf_weight=611 1533 33 3134 500 8269 20 13763 291 2605 7823 156 81 5878 617 10987 53 2068 8018 17511 4389 5526 36 81 887 43 32 24 2675 1085 701
leaf_count=611 1533 33 3134 500 8269 20 13763 291 2605 7823 156 81 5878 617 10987 53 2068 8018 17511 4389 5526 36 81 887 43 32 24 2675 1085 701
internal_value=0 5762.57 -947.18 5352.36 282.382 39221.8 -2408.61 9694.96 4024.51 -318.148 1510.13 29951.6 1411.17 8798.33 -3334.51 17261.6 5303.12 -1682.03 -758.817 3010.38 -3467.12 58093.3 -1081.33 2212.26 8986.12 71.0849 6474.48 548.457 7305.59 10593.5
internal_weight=0 14036 85394 13866 46376 170 39018 3247 10619 31143 15233 114 15034 2903 17156 344 4697 21862 20645 5922 16513 56 8099 6765 199 643 2092 10498 1585 1318
internal_count=99430 14036 85394 13866 46376 170 39018 3247 10619 31143 15233 114 15034 2903 17156 344 4697 21862 20645 5922 16513 56 8099 6765 199 643 2092 10498 1585 1318
is_linear=0
shrinkage=0.1


Tree=2
num_leaves=31
num_cat=0
split_feature=34 34 34 34 1 34 34 34 34 7 15 34 35 34 34 8 20 34 34 1 34 8 11 14 15 8 8 35 15 15
split_gain=5.406e+13 2.10476e+13 1.24065e+13 8.93036e+12 3.04418e+12 2.1478e+12 1.95602e+12 1.44146e+12 1.27037e+12 9.42028e+11 4.28263e+11 3.27015e+11 3.23595e+11 2.81576e+11 2.46018e+11 2.40831e+11 2.316e+11 2.18715e+11 2.05354e+11 2.03003e+11 1.75903e+11 1.51132e+11 1.54695e+11 1.21086e+11 1.11532e+11 1.31185e+11 1.03115e+11 8.84574e+10 9.81577e+10 8.65826e+10
threshold=76483.516483516505 252285.71428571432 40428.571428571442 128813.18681318681 590500.00000000012 56357.142857142862 23967.03296703297 99912.087912087925 158895.60439560443 373000.00000000006 800500.00000000012 67664.835164835167 145383.33333333334 48697.802197802208 31840.659340659342 214500.00000000003 483500.00000000006 115593.4065934066 14049.450549450552 223500.00000000003 85637.362637362647 173500.00000000003 71500.000000000015 512500.00000000006 76500.000000000015 42500.000000000007 294000.00000000006 141000.00000000003 167500.00000000003 247500.00000000003
decision_type=2 2 2 2 2 2 2 2 2 10 8 2 10 2 2 10 8 2 2 2 2 10 8 10 8 10 8 8 8 10
left_child=2 3 6 7 9 13 18 20 21 19 -6 -7 17 -4 -8 27 -11 -9 -1 -3 -2 24 -23 -18 25 -5 -21 -10 -29 -26
right_child=1 4 5 8 10 11 14 12 15 16 -12 -13 -14 -15 -16 -17 23 -19 -20 26 -22 22 -24 -25 29 -27 -28 28 -30 -31
leaf_value=-3850.2456899984736 2094.2118711559028 30396.031909179688 -951.59385558080396 -3353.8813121448861 41213.387369791672 446.61986552066492 -2353.6473574629686 4153.2735665145474 16348.241644021738 27703.90737680289 58660.532398897063 1322.7033800065319 -2191.6494310461958 -295.63822079799218 -1638.7945158494517 13366.419622395835 34097.781597222223 5508.9390469641939 -3096.3016090879919 17085.318161386986 2935.8251122535717 16819.225955078127 8586.2288692095808 43514.465163352274 6930.2357787607943 5653.6152784003589 22761.210656524127 8524.1294084821438 10609.911149275396 12630.362926793983
leaf_weight=7076 4819 20 14457 22 24 13237 8235 2928 23 39 34 6283 69 11956 11590 300 36 2005 7381 73 5124 25 262 22 2043 61 57 301 901 27
leaf_count=7076 4819 20 14457 22 24 13237 8235 2928 23 39 34 6283 69 11956 11590 300 36 2005 7381 73 5124 25 262 22 2043 61 57 301 901 27
internal_value=0 4764.17 -1141.23 4343.84 30824.3 -66.8232 -2580.77 3224.5 8562.89 25983.1 51441 728.609 4609.15 -654.672 -1935.73 10827 33662.8 4704.28 -3465.32 21016.9 2527.93 7147.81 9303.39 37669.6 6860.46 3266.09 19574 10205.1 10087.6 7004.59
internal_weight=0 19215 80215 18910 305 45933 34282 14945 3965 247 58 19520 5002 26413 19825 1525 97 4933 14457 150 9943 2440 287 58 2153 83 130 1225 1202 2070
internal_count=99430 19215 80215 18910 305 45933 34282 14945 3965 247 58 19520 5002 26413 19825 1525 97 4933 14457 150 9943 2440 287 58 2153 83 130 1225 1202 2070
is_linear=0
shrinkage=0.1


Tree=3
num_leaves=31
num_cat=0
split_feature=34 34 34 34 5 34 34 34 34 7 15 34 35 34 37 34 34 34 34 14 11 34 35 7 22 34 35 15 35 37
split_gain=4.37886e+13 1.70485e+13 1.00592e+13 7.23475e+12 2.20381e+12 1.70843e+12 1.65189e+12 1.16186e+12 1.04204e+12 7.2843e+11 6.10283e+11 3.10233e+11 2.79377e+11 2.54087e+11 2.35506e+11 2.07808e+11 2.02651e+11 1.55702e+11 1.52411e+11 1.30578e+11 1.27077e+11 1.20284e+11 1.0718e+11 9.89312e+10 9.42308e+10 8.62502e+10 8.08091e+10 7.98178e+10 7.50054e+10 7.33336e+10
threshold=76483.516483516505 252285.71428571432 41401.098901098907 126521.97802197804 594000.00000000012 23291.208791208792 59532.967032967041 158895.60439560443 95675.824175824164 373000.00000000006 800500.00000000012 51142.857142857152 150483.33333333337 33697.802197802208 73833.333333333358 200807.69230769234 111313.18681318683 67950.549450549457 12785.714285714288 512500.00000000006 72500.000000000015 149879.12087912092 121683.33333333336 71500.000000000015 282500.00000000006 85637.362637362647 85816.666666666672 174500.00000000003 150483.33333333337 155833.33333333334
decision_type=2 2 2 2 10 2 2 2 2 8 8 2 10 2 8 2 2 2 2 10 8 2 8 8 8 2 10 8 8 8
left_child=2 3 5 8 9 18 11 14 25 24 -6 -4 16 -7 20 28 -10 -8 -1 -11 -5 22 -16 -24 -3 -2 -19 -17 -9 -29
right_child=1 4 6 7 10 13 17 15 12 19 -12 -13 -14 -15 21 27 -18 26 -20 -21 -22 -23 23 -25 -26 -27 -28 29 -30 -31
leaf_value=-3539.5068788973513 1884.7906921854155 15216.408117675783 -762.29761929439155 19006.34765625 33161.741847826088 -2065.5328468279586 557.49355691255005 14581.67425 3424.284951925481 27693.327789522064 54381.426941287878 -105.72303551039828 -7352.152787642046 -1379.4736465660808 9299.8079549153645 6276.9466031161228 4621.233693644288 1253.5062164458288 -2868.0305666876156 35567.165011160716 9243.7706777954099 7399.0524721543397 2432.2082701127611 5807.4083539197227 20724.533995472302 2511.8570545597336 -1926.8862747757526 18215.947098214288 9047.2534906491073 12074.305969704199
leaf_weight=5734 4819 48 16226 20 23 10858 9577 25 3294 85 33 12932 22 10736 84 22 2479 5836 8235 28 40 609 91 1901 88 4026 81 21 1195 262
leaf_count=5734 4819 48 16226 20 23 10858 9577 25 3294 85 33 12932 22 10736 84 22 2479 5836 8235 28 40 609 91 1901 88 4026 81 21 1195 262
internal_value=0 4287.75 -1027.1 3909.46 27741.9 -2281.9 -27.7199 7531.24 2853.1 23710.7 45666.2 -471.097 3895.41 -1724.44 6301.75 9744.33 3938.27 806.667 -3143.66 29644.4 12498 6163.29 5800.77 5653.22 18780.5 2170.21 1209.97 12079 9160.66 12530
internal_weight=0 19215 80215 18910 305 35563 44652 4270 14640 249 56 29158 5795 21594 2745 1525 5773 15494 13969 113 60 2685 2076 1992 136 8845 5917 305 1220 283
internal_count=99430 19215 80215 18910 305 35563 44652 4270 14640 249 56 29158 5795 21594 2745 1525 5773 15494 13969 113 60 2685 2076 1992 136 8845 5917 305 1220 283
is_linear=0
shrinkage=0.1


Tree=4
num_leaves=31
num_cat=0
split_feature=34 34 34 34 8 34 34 34 34 22 5 34 35 0 34 33 34 34 10 8 34 34 15 24 35 34 0 8 34 24
split_gain=3.54688e+13 1.38093e+13 8.16237e+12 5.88425e+12 2.12258e+12 1.67931e+12 1.03287e+12 9.53184e+11 8.42194e+11 5.63107e+11 4.08126e+11 2.74759e+11 2.44393e+11 2.42799e+11 2.1932e+11 1.66916e+11 1.55761e+11 1.5199e+11 1.71176e+11 1.49033e+11 1.37475e+11 1.33422e+11 1.27251e+11 1.08069e+11 1.05825e+11 8.64209e+10 7.04422e+10 6.05149e+10 6.69836e+10 5.9708e+10
threshold=76483.516483516505 252285.71428571432 37868.131868131873 128813.18681318681 646000.00000000012 54752.747252747264 20576.923076923082 101494.50549450552 171978.02197802201 314500.00000000006 546500.00000000012 64796.703296703301 145383.33333333334 634541.00000000012 46115.384615384624 inf 29983.516483516487 145791.20879120883 1.0000000180025095e-35 225500.00000000003 120565.93406593408 87912.087912087925 1.0000000180025095e-35 481500.00000000006 108650.00000000001 11692.307692307693 644014.50000000012 81500.000000000015 200807.69230769234 146500.00000000003
decision_type=2 2 2 2 10 2 2 2 2 8 10 2 10 2 2 8 2 2 8 10 2 2 8 10 8 2 2 8 2 8
left_child=2 3 6 7 9 14 25 21 17 -3 13 -7 20 -11 -4 -6 -8 -5 -19 27 -9 -2 -20 -15 -22 -1 -14 -10 29 -29
right_child=1 4 5 8 15 11 16 12 19 10 -12 -13 26 23 -16 -17 -18 18 22 -21 24 -23 -24 -25 -26 -27 -28 28 -30 -31
leaf_value=-3245.8594453610408 1764.4092345904876 14349.049142690807 -938.24985685582305 5306.0771656659235 38738.770244565218 235.4703574316905 -2042.3395984596104 3548.9837046541588 3581.431990913723 18318.966409080615 37620.04918154762 958.0385185905875 -6624.7707031250002 28482.098950582837 -373.23960813665798 50786.374796195654 -1461.9997968385587 13907.673840332032 63.309186422413795 11694.753232115101 9970.4327328330601 2491.9205827050741 6769.9169795904345 21015.51201389858 4612.6867183231252 -2701.052590177308 153.17597231657609 11694.156715745194 10631.656910083911 8196.1305839538581
leaf_weight=4758 5917 78 13298 1525 23 12993 8601 3294 23 69 21 8845 23 63 14213 23 10004 33 29 191 38 4392 1158 28 1235 7503 46 52 162 792
leaf_count=4758 5917 78 13298 1525 23 12993 8601 3294 23 69 21 8845 23 63 14213 23 10004 33 29 191 38 4392 1158 28 1235 7503 46 52 162 792
internal_value=0 3858.97 -924.393 3518.51 24967.7 -126.616 -2199.89 2609.91 6943.24 21452 24512.9 528.131 3800.81 22792.6 -646.349 44762.6 -1730.29 5971.63 6803.57 9129.37 3890.06 2074.35 6606.07 26184.7 4772.62 -2912.47 -2106.14 8653.19 8769.15 8411.65
internal_weight=0 19215 80215 18910 305 49349 30866 14945 3965 259 181 21838 4636 160 27511 46 18605 2745 1220 1220 4567 10309 1187 91 1273 12261 69 1029 1006 844
internal_count=99430 19215 80215 18910 305 49349 30866 14945 3965 259 181 21838 4636 160 27511 46 18605 2745 1220 1220 4567 10309 1187 91 1273 12261 69 1029 1006 844
is_linear=0
shrinkage=0.1


Tree=5
num_leaves=31
num_cat=0
split_feature=34 34 34 34 1 34 34 34 7 8 34 22 35 29 34 34 34 34 1 22 34 8 20 29 25 34 35 32 34 37
split_gain=2.87526e+13 1.06035e+13 7.93062e+12 3.7633e+12 1.72504e+12 1.47755e+12 1.36766e+12 5.9924e+11 5.37671e+11 5.34443e+11 2.42778e+11 2.42612e+11 2.22289e+11 1.89539e+11 1.62878e+11 1.62498e+11 1.60802e+11 1.56631e+11 1.40877e+11 1.24984e+11 1.16239e+11 9.99514e+10 9.61468e+10 9.36395e+10 9.25171e+10 8.41281e+10 7.82758e+10 7.51728e+10 7.37433e+10 7.33318e+10
threshold=83862.637362637368 252285.71428571432 43461.538461538468 133060.43956043958 590500.00000000012 60978.021978021985 26313.186813186818 106637.36263736265 373000.00000000006 173500.00000000003 72186.813186813204 867500.00000000012 145383.33333333334 467000.00000000006 35120.87912087913 15829.670329670331 52807.692307692312 187060.43956043958 223500.00000000003 25500.000000000004 158895.60439560443 95500.000000000015 502500.00000000006 233500.00000000003 52500.000000000007 120565.93406593408 108650.00000000001 86500.000000000015 95675.824175824164 73833.333333333358
decision_type=2 2 2 2 2 2 2 2 10 10 2 8 10 8 2 2 2 2 2 8 2 10 10 10 8 2 8 8 2 8
left_child=2 3 6 7 8 16 15 28 18 19 -7 -6 24 -10 -8 -1 -4 23 -3 21 29 -5 -15 -11 27 -26 -27 -9 -2 -21
right_child=1 4 5 9 11 10 14 12 13 17 -12 -13 -14 22 -16 -17 -18 -19 -20 20 -22 -23 -24 -25 25 26 -28 -29 -30 -31
leaf_value=-2771.8297902322265 1995.6307637383027 22887.95587890625 -491.8062027610294 -4596.4363653273813 31296.053591918946 589.80320870541732 -1560.0371618120789 11846.191366299718 18178.565265877016 7145.1735665476608 1341.311011766752 44238.929947916673 -1895.5256057518118 24866.579251453488 -1024.6074328945299 -2137.1697058900613 2.4319683008527777 9682.6775644449717 13872.664996995192 10111.480638073337 6946.7236726654728 4761.7912851562496 32876.73933423913 14086.411762695312 3319.3913295132393 7827.2107041181143 4124.3985919731813 5377.7933105468755 2661.080085277632 5197.7290652337479
leaf_weight=8418 4758 20 15799 21 28 11102 10370 22 31 688 7015 30 69 43 12566 7747 11285 479 130 31 593 25 23 20 2136 59 1764 98 2562 1498
leaf_count=8418 4758 20 15799 21 28 11102 10370 22 31 688 7015 30 69 43 12566 7747 11285 479 130 31 593 25 23 20 2136 59 1764 98 2562 1498
internal_value=0 4014.28 -720.363 3634.51 22470.9 181.737 -1763.2 2772.69 18826.6 6580.38 880.791 37990.6 3732.96 24628.5 -1266.69 -2467.67 -285.874 8286.11 15074.7 5646.49 5758.28 489.557 27658 7341.25 3828.17 3745.25 4244.24 6563.67 2228.54 5297.35
internal_weight=0 15128 84302 14823 305 45201 39101 11468 247 3355 18117 58 4148 97 22936 16165 27084 1187 150 2168 2122 46 66 708 4079 3959 1823 120 7320 1529
internal_count=99430 15128 84302 14823 305 45201 39101 11468 247 3355 18117 58 4148 97 22936 16165 27084 1187 150 2168 2122 46 66 708 4079 3959 1823 120 7320 1529
is_linear=0
shrinkage=0.1


Tree=6
num_leaves=31
num_cat=0
split_feature=36 36 36 8 4 8 36 37 8 8 36 36 36 37 4 28 4 19 17 8 36 14 37 8 37 37 36 36 8 36
split_gain=1.88601e+13 6.88301e+12 6.1134e+12 1.85351e+12 1.67913e+12 1.28454e+12 1.05017e+12 9.53914e+11 5.28332e+11 4.4782e+11 4.08473e+11 3.79472e+11 3.76117e+11 3.70697e+11 3.08148e+11 2.97469e+11 2.39805e+11 2.14436e+11 1.87452e+11 1.72588e+11 1.59995e+11 1.58619e+11 1.49063e+11 1.43656e+11 1.31923e+11 1.16567e+11 1.03629e+11 9.23605e+10 9.18515e+10 7.64937e+10
threshold=91071.428571428594 265285.71428571438 46214.285714285717 145500.00000000003 65500.000000000007 573500.00000000012 28357.142857142859 164166.66666666672 54500.000000000007 75500.000000000015 165642.85714285719 1.0000000180025095e-35 107785.7142857143 248333.33333333334 35500.000000000007 338000.00000000006 177500.00000000003 634000.00000000012 94500.000000000015 233500.00000000003 16071.428571428574 400000.00000000006 144166.66666666672 72500.000000000015 107500.00000000001 29166.666666666668 64357.142857142862 36071.42857142858 120500.00000000001 79928.571428571435
decision_type=10 10 8 10 10 10 10 10 10 8 10 10 10 10 8 8 10 10 10 10 10 10 8 10 10 10 8 10 10 10
left_child=2 3 6 12 8 15 11 9 14 26 -5 18 -2 -9 25 -3 24 -7 -1 -12 -13 -17 -18 -10 -11 -4 -6 -8 -14 -27
right_child=1 5 4 10 7 17 27 13 23 16 19 20 28 -15 -16 21 22 -19 -20 -21 -22 -23 -24 -25 -26 29 -28 -29 -30 -31
leaf_value=985.97932261947756 2099.1397835963789 11350.053771578881 -1817.6769531489481 4635.2047808487896 3.1282195996857909 26830.930580357144 -1249.0162567110103 6766.4097453132999 101.21392228050831 1312.533925521936 6591.4811264842665 -2409.0113188106156 3025.2142936305918 20132.932201171876 -344.51425691866115 15736.438190429688 1959.3863845354892 39835.67585449219 11059.29638671875 9881.7465522643724 -1791.6378434108804 23253.609843444825 8071.5428034002143 868.50369716747105 3156.7415829331271 -714.94627710084626 709.91901216172585 -813.47298267587132 3994.2008635188658 4874.7437958984374
leaf_weight=242 4196 62 2246 1491 3135 21 7569 122 10369 7867 1081 7883 2190 25 15084 50 73 32 20 187 8979 64 88 3191 408 1182 6132 13648 1768 25
leaf_count=242 4196 62 2246 1491 3135 21 7569 122 10369 7867 1081 7883 2190 25 15084 50 73 32 20 187 8979 64 88 3191 408 1182 6132 13648 1768 25
internal_value=0 3876.89 -489.265 3516.84 239.802 21034.7 -1439.02 1017.3 -192.587 950.687 5757.29 -2021.58 2758.76 9039.63 -539.589 16924.8 1477.83 34682.9 1754.93 7076.72 -2080.26 19956.6 5300.19 281.776 1403.46 -1391.75 470.814 -968.85 3458.05 -599.17
internal_weight=0 11142 88288 10913 49947 229 38341 17850 32097 17703 2759 17124 8154 147 18537 176 8436 53 262 1268 16862 114 161 13560 8275 3453 9267 21217 3958 1207
internal_count=99430 11142 88288 10913 49947 229 38341 17850 32097 17703 2759 17124 8154 147 18537 176 8436 53 262 1268 16862 114 161 13560 8275 3453 9267 21217 3958 1207
is_linear=0
shrinkage=0.1


Tree=7
num_leaves=31
num_cat=0
split_feature=34 34 34 34 8 34 34 34 34 14 34 33 5 0 5 20 34 29 5 34 8 8 22 9 6 34 37 34 18 31
split_gain=1.9358e+13 7.5342e+12 4.29261e+12 3.35943e+12 1.16787e+12 8.54846e+11 5.67033e+11 5.29573e+11 4.59133e+11 4.17201e+11 1.52819e+11 1.29858e+11 1.10573e+11 1.54994e+11 1.71507e+11 1.04063e+11 1.01534e+11 9.78912e+10 1.05676e+11 8.92463e+10 8.66127e+10 8.54291e+10 7.14364e+10 7.87539e+10 6.99657e+10 6.96015e+10 7.70965e+10 6.46632e+10 7.52409e+10 1.25294e+11
threshold=75104.395604395613 252285.71428571432 37868.131868131873 128813.18681318681 646000.00000000012 56357.142857142862 20236.26373626374 98329.670329670349 171978.02197802201 379000.00000000006 47291.208791208795 1045500.0000000001 546500.00000000012 634541.00000000012 417000.00000000006 304500.00000000006 66554.94505494507 173500.00000000003 97500.000000000015 29296.703296703301 205500.00000000003 85500.000000000015 72500.000000000015 93500.000000000015 129500.00000000001 145791.20879120883 74500.000000000015 108791.20879120882 176500.00000000003 158500.00000000003
decision_type=2 2 2 2 10 2 2 2 2 8 2 8 10 2 8 10 2 10 10 2 10 10 8 10 10 2 8 2 10 10
left_child=2 3 6 7 9 10 -1 21 17 15 -4 -6 13 -11 -15 -3 -7 22 -19 -8 -10 24 23 -5 -2 -24 -27 -9 -29 -30
right_child=1 4 5 8 11 16 19 27 20 12 -12 -13 -14 14 -16 -17 -18 18 -20 -21 -22 -23 25 -25 -26 26 -28 28 29 -31
leaf_value=-2164.8547988089508 1272.2957722017522 9518.7388448324546 -662.16313972144599 -3105.2399793836807 27515.309832208808 242.87479346589032 -1532.9065869767837 2273.7096920787312 6195.3090128930262 12382.617199707032 -208.97275668135973 38151.753645833334 25886.114741847829 27115.86446759259 17384.251225142045 15781.361301206933 729.03104183299149 13273.21083984375 5699.9778927794896 -1095.4396872528002 8020.0680604325971 1783.1951692646107 3884.9461357770342 3551.5699397160456 -627.4965224081011 11122.861799316408 4850.328426361084 3095.1627459866977 2442.7977077277133 -3963.1494674682617
leaf_weight=11834 5452 83 15616 27 22 12139 8174 2196 844 32 14213 24 23 27 55 39 6649 20 234 10858 376 4656 1424 52 201 20 968 3003 129 40
leaf_count=11834 5452 83 15616 27 22 12139 8174 2196 844 32 14213 24 23 27 55 39 6649 20 234 10858 376 4656 1424 52 201 20 968 3003 129 40
internal_value=0 2785.28 -698.993 2543.1 18381.6 -113.435 -1621.3 1885.4 5143.56 15773.8 -446.226 33064.8 19561.2 18285.1 20588.6 11520.7 414.924 4426.17 6296.3 -1283.33 6757.69 1466 4235.48 1276.46 1204.75 4332.4 4977.3 2690.84 2979.62 926.597
internal_weight=0 19947 79483 19642 305 48617 30866 15677 3965 259 29829 46 137 114 82 122 18788 2745 254 19032 1220 10309 2491 79 5653 2412 988 5368 3172 169
internal_count=99430 19947 79483 19642 305 48617 30866 15677 3965 259 29829 46 137 114 82 122 18788 2745 254 19032 1220 10309 2491 79 5653 2412 988 5368 3172 169
is_linear=0
shrinkage=0.1


Tree=8
num_leaves=31
num_cat=0
split_feature=34 34 34 34 1 34 34 34 8 20 15 35 21 33 35 15 21 34 8 8 34 34 34 34 7 35 35 34 8 27
split_gain=1.56818e+13 6.07902e+12 3.55746e+12 2.67475e+12 1.04094e+12 6.70129e+11 5.29954e+11 4.15171e+11 3.87767e+11 3.24977e+11 2.82252e+11 1.54344e+11 1.47053e+11 1.11144e+11 1.06983e+11 1.08877e+11 1.02157e+11 1.05756e+11 1.00275e+11 9.8085e+10 9.07459e+10 8.73625e+10 8.51627e+10 8.48368e+10 7.26405e+10 6.74534e+10 6.07664e+10 6.42985e+10 5.58963e+10 5.34031e+10
threshold=75956.04395604397 252285.71428571432 42313.186813186818 128813.18681318681 672500.00000000012 25016.48351648352 59532.967032967041 95675.824175824164 173500.00000000003 483500.00000000006 856500.00000000012 150483.33333333337 350000.00000000006 481500.00000000006 121683.33333333336 76500.000000000015 266500.00000000006 187060.43956043958 122500.00000000001 97500.000000000015 51142.857142857152 11302.197802197805 33697.802197802208 145791.20879120883 460500.00000000006 97650.000000000015 85816.666666666672 68945.054945054959 88500.000000000015 303000.00000000006
decision_type=2 2 2 2 2 2 2 2 10 10 8 10 8 10 8 8 10 2 10 10 2 2 2 2 10 8 10 2 10 8
left_child=2 3 5 7 9 21 20 28 14 12 -6 18 29 -11 -5 19 17 -10 -9 -16 -4 -1 -7 -17 -14 -20 27 -8 -2 -3
right_child=1 4 6 8 10 22 26 11 16 13 -12 -13 24 -15 15 23 -18 -19 25 -21 -22 -23 -24 -25 -26 -27 -28 -29 -30 -31
leaf_value=-2221.8631956344884 1100.1644721848909 7276.4406797055844 -431.06816922042157 7444.9505128372548 22314.843265964675 -1206.2972134786676 353.41737411760414 2170.1184503443792 5211.9412343561489 16758.964381760819 37817.194254557297 -3018.1039762676887 13183.380141379617 26196.006591796875 -2715.0973741896614 3429.0725039988511 11524.474870749082 7158.4953298849596 7892.6276569234924 3893.9578104507091 -66.092665323278737 -1691.5054241841915 -809.7287008365837 4577.2462852262506 18881.4571875 3021.8292361187823 -2341.1663259807387 798.31762844218304 1608.8628817379079 12248.728993055556
leaf_weight=4331 5752 54 14396 86 23 9516 10309 4567 722 26 24 53 88 24 47 1339 34 455 29 43 12932 10980 12566 1239 30 1451 76 4743 3459 36
leaf_count=4331 5752 54 14396 86 23 9516 10309 4567 722 26 24 53 88 24 47 1339 34 455 29 43 12932 10980 12566 1239 30 1451 76 4743 3459 36
internal_value=0 2536.04 -621.902 2314.41 16543.5 -1333.13 4.51064 1714.96 4629.21 14050 30230.9 2354.84 12309.9 21288.7 3973.43 3861.53 6120.54 5964.43 2401.93 442.562 -258.357 -1841.53 -980.626 3980.89 14632 3117.27 479.368 493.609 1291.2 9265.36
internal_weight=0 19581 79849 19276 305 37393 42456 15311 3965 258 47 6100 208 50 2754 2668 1211 1177 6047 90 27328 15311 22082 2578 118 1480 15128 15052 9211 90
internal_count=99430 19581 79849 19276 305 37393 42456 15311 3965 258 47 6100 208 50 2754 2668 1211 1177 6047 90 27328 15311 22082 2578 118 1480 15128 15052 9211 90
is_linear=0
shrinkage=0.1


Tree=9
num_leaves=31
num_cat=0
split_feature=34 34 34 34 9 34 34 22 34 34 35 7 9 24 34 34 4 34 0 25 5 32 34 37 27 14 18 27 6 34
split_gain=1.2734e+13 4.64643e+12 3.50429e+12 1.69791e+12 6.64537e+11 6.59175e+11 5.99244e+11 2.73187e+11 2.54551e+11 2.31728e+11 1.45675e+11 1.45503e+11 1.10247e+11 9.09191e+10 8.65688e+10 8.61464e+10 8.54553e+10 8.52141e+10 7.76578e+10 7.65788e+10 7.3878e+10 6.83225e+10 6.80484e+10 6.62213e+10 6.26604e+10 6.40799e+10 6.07085e+10 5.95512e+10 5.43392e+10 5.28137e+10
threshold=83862.637362637368 252285.71428571432 44659.340659340676 133060.43956043958 582500.00000000012 26313.186813186818 61923.076923076929 314500.00000000006 105175.82417582419 171978.02197802201 145383.33333333334 355500.00000000006 788000.00000000012 1.0000000180025095e-35 35324.175824175829 72186.813186813204 575500.00000000012 16554.945054945059 634541.00000000012 52500.000000000007 26500.000000000004 113500.00000000001 52807.692307692312 95166.666666666672 112500.00000000001 230500.00000000003 479500.00000000006 223500.00000000003 104500.00000000001 120565.93406593408
decision_type=2 2 2 2 10 2 2 8 2 2 10 8 10 8 2 2 8 2 2 8 8 10 2 10 8 10 8 10 10 2
left_child=2 3 5 8 7 17 22 27 -2 13 19 26 -6 -5 -7 -8 18 -1 -13 21 -17 -10 -4 -24 -11 -26 -9 -3 -22 -21
right_child=1 4 6 9 12 14 15 11 10 24 -12 16 -14 -15 -16 20 -18 -19 -20 29 28 -23 23 -25 25 -27 -28 -29 -30 -31
leaf_value=-1834.1673181334072 1461.6243487082563 3069.8723214721681 -299.74345549446565 8684.5340134079397 30402.048011363637 -1030.8962613617898 427.23189022148711 14207.458984375 7374.7072094726573 10668.352573029893 -2133.5963201992754 10315.051455078126 21206.147324943544 3683.9244487973369 -655.62782739179727 2308.296104448691 23037.054389648438 -1369.9164082647392 17380.663077566966 2129.3277861476231 891.98724801093215 2602.480153808594 34.726128048276074 -3896.22960913015 5135.8586690017419 7434.0946830805206 8047.6839294433594 9412.0470189144744 -227.70384629867618 2836.9952944907786
leaf_weight=9272 6954 20 13664 37 22 10797 9638 32 60 23 69 20 32 2098 14274 348 20 6893 70 2502 6201 60 12706 43 1060 137 32 57 466 1823
leaf_count=9272 6954 20 13664 37 22 10797 9638 32 60 23 69 20 32 2098 14274 348 20 6893 70 2502 6201 60 12706 43 1060 137 32 57 466 1823
internal_value=0 2671.48 -479.398 2420.09 14889.1 -1138.28 151.49 12724.1 1841.21 4398.82 2425.97 14918.7 24952.6 3770.59 -817.24 621.272 17124.4 -1636.2 15810.5 2496.75 887.867 4988.59 -144.702 21.4677 5498.24 5398.9 11127.6 7764.73 813.725 2427.61
internal_weight=0 15128 84302 14823 305 41236 43066 251 11468 3355 4514 174 54 2135 25071 16653 110 16165 90 4445 7015 120 26413 12749 1220 1197 64 77 6667 4325
internal_count=99430 15128 84302 14823 305 41236 43066 251 11468 3355 4514 174 54 2135 25071 16653 110 16165 90 4445 7015 120 26413 12749 1220 1197 64 77 6667 4325
is_linear=0
shrinkage=0.1


Tree=10
num_leaves=31
num_cat=0
split_feature=34 34 34 34 1 34 34 34 20 15 15 34 35 20 0 15 27 34 37 35 27 37 34 10 15 34 15 22 35 25
split_gain=1.0319e+13 3.86378e+12 2.62191e+12 1.54337e+12 7.30169e+11 4.76115e+11 4.46888e+11 2.67459e+11 2.30359e+11 2.16565e+11 1.95899e+11 1.20097e+11 1.15894e+11 1.03585e+11 1.35767e+11 9.44368e+10 9.0971e+10 7.84707e+10 7.45185e+10 7.0986e+10 7.22205e+10 6.81073e+10 6.48698e+10 6.23076e+10 6.15122e+10 6.14968e+10 5.95795e+10 1.16859e+11 6.09267e+10 5.44828e+10
threshold=80351.648351648371 252285.71428571432 42313.186813186818 133060.43956043958 672500.00000000012 60115.384615384624 21983.516483516487 102758.24175824177 483500.00000000006 856500.00000000012 168500.00000000003 187060.43956043958 150483.33333333337 264500.00000000006 634541.00000000012 467000.00000000006 504500.00000000006 31840.659340659342 74500.000000000015 95350.000000000015 116500.00000000001 164166.66666666672 49741.758241758253 2500.0000000000005 258500.00000000003 70879.120879120892 69500.000000000015 115500.00000000001 129616.66666666667 5500.0000000000009
decision_type=2 2 2 2 2 2 2 2 10 8 8 2 10 8 2 8 10 2 8 8 10 8 2 10 10 2 10 10 8 8
left_child=2 3 6 7 8 22 -1 -2 13 -6 23 18 19 -3 24 -16 -10 -8 -12 20 -9 -13 -4 -5 -15 -7 27 -25 -28 -27
right_child=1 4 5 10 9 25 17 12 16 -11 11 21 -14 14 15 -17 -18 -19 -20 -21 -22 -23 -24 26 -26 29 28 -29 -30 -31
leaf_value=-1551.3854364643105 1217.3111216039238 6214.6438463712993 -366.69360186727943 7568.2987021169356 17929.791151494566 329.00246716767549 -1049.6871949979802 2747.0276157924109 13469.532072844331 31508.983707682295 10179.119467773438 10296.188316761363 -2502.9338517099059 5934.1636787777861 9357.2429827008946 17603.653725228662 22027.896314538044 -681.83616896282217 4026.0143574041163 2160.4246005338564 10614.890014648438 5611.5537008860292 -61.556942131507697 -2736.8231019312025 11200.422311336437 2388.9468401843965 5744.0768406261104 4598.8997470953527 3027.4850005429162 672.36584279420606
leaf_weight=13115 8418 57 12871 31 23 11041 9577 28 27 24 20 33 53 42 21 41 23 14701 1239 4779 20 521 15189 49 47 191 88 39 1335 5787
leaf_count=13115 8418 57 12871 31 23 11041 9577 28 27 24 20 33 53 42 21 41 23 14701 1239 4779 20 521 15189 49 47 191 88 39 1335 5787
internal_value=0 2246.6 -461.949 2042.32 13400.2 51.578 -1081.03 1558.77 11311.9 24863.8 3958.94 4663.66 2147.79 9846.83 11217.9 14810.5 17406.4 -826.943 4123.76 2198.86 6025.3 5890.6 -201.522 3130.38 8715.22 468.875 3039.33 514.236 3195.48 727.211
internal_weight=0 16958 82472 16653 305 45079 37393 13298 258 47 3355 1813 4880 208 151 62 50 24278 1259 4827 48 554 28060 1542 89 17019 1511 88 1423 5978
internal_count=99430 16958 82472 16653 305 45079 37393 13298 258 47 3355 1813 4880 208 151 62 50 24278 1259 4827 48 554 28060 1542 89 17019 1511 88 1423 5978
is_linear=0
shrinkage=0.1


Tree=11
num_leaves=31
num_cat=0
split_feature=34 34 34 34 1 34 34 34 20 15 8 29 35 1 34 13 1 33 35 34 35 27 1 15 8 7 8 35 34 37
split_gain=8.38048e+12 3.04647e+12 2.30264e+12 1.11804e+12 5.91437e+11 4.39817e+11 3.91446e+11 2.25686e+11 1.86591e+11 1.75418e+11 1.35616e+11 1.07603e+11 1.00722e+11 9.30684e+10 8.94092e+10 8.44152e+10 9.17867e+10 7.5513e+10 7.18282e+10 6.98517e+10 6.97516e+10 1.04901e+11 1.00088e+11 6.60707e+10 5.81783e+10 5.07048e+10 4.84677e+10 4.81674e+10 4.63101e+10 5.98557e+10
threshold=83862.637362637368 252285.71428571432 44659.340659340676 141604.39560439563 672500.00000000012 28780.219780219784 61923.076923076929 111313.18681318683 483500.00000000006 856500.00000000012 172500.00000000003 277500.00000000006 157100.00000000003 180500.00000000003 16978.021978021981 294000.00000000006 480500.00000000006 481500.00000000006 129616.66666666667 187060.43956043958 108650.00000000001 117500.00000000001 113500.00000000001 1.0000000180025095e-35 102500.00000000001 275000.00000000006 279500.00000000006 52216.666666666679 53593.406593406602 95166.666666666672
decision_type=2 2 2 2 2 2 2 2 10 8 8 10 10 2 2 8 2 10 8 2 8 10 2 8 10 10 10 10 2 10
left_child=2 3 5 7 8 14 28 -2 13 -6 18 19 20 -3 -1 25 26 -10 -5 -12 21 -9 -23 -20 -8 -15 -17 -7 -4 -30
right_child=1 4 6 10 9 27 24 12 17 -11 11 -13 -14 15 -16 16 -18 -19 23 -21 -22 22 -24 -25 -26 -27 -28 -29 29 -31
leaf_value=-1486.9884896343376 1243.9720091947679 15347.498730468751 -233.43060035613939 6613.2178655450989 16136.812257982338 -609.39692608544067 460.75516296645037 2797.2531398121905 11931.99541766827 28358.085237630206 3810.8499095948132 11417.429066051138 -2211.6329664963941 3184.2656660870812 -1054.8464664281607 4654.1043000397867 14510.99878402218 19710.63356933594 -1241.4320563239021 5284.5919051799374 2131.5253645846615 13694.669854736328 3690.2790344238283 3045.7660099032564 1345.3609665130959 8495.7877182006832 9797.4621864720393 -2927.5498386637373 46.485964592217655 -3982.0754651868665
leaf_weight=9699 8052 20 14884 55 23 21992 15873 123 26 24 851 22 52 41 9455 27 31 24 37 517 3811 20 20 1263 780 32 57 90 11492 37
leaf_count=9699 8052 20 14884 55 23 21992 15873 123 26 24 851 22 52 41 9455 27 31 24 37 517 3811 20 20 1263 780 32 57 90 11492 37
internal_value=0 2167.22 -388.908 1963.67 12060.2 -923.009 122.497 1549.63 10180.7 22377.5 3785.41 4479.39 2160.95 8862.15 -1273.67 8172.22 9860.5 15665.7 3073.5 4367.81 2218.17 4243.93 8692.47 2923.75 502.189 5512.6 8144.24 -618.845 -116.893 33.5571
internal_weight=0 15128 84302 14823 305 41236 43066 12078 258 47 2745 1390 4026 208 19154 188 115 50 1355 1368 3974 163 40 1300 16653 73 84 22082 26413 11529
internal_count=99430 15128 84302 14823 305 41236 43066 12078 258 47 2745 1390 4026 208 19154 188 115 50 1355 1368 3974 163 40 1300 16653 73 84 22082 26413 11529
is_linear=0
shrinkage=0.1


Tree=12
num_leaves=31
num_cat=0
split_feature=34 34 34 34 1 34 8 34 34 20 11 35 21 0 29 4 35 8 35 21 7 4 13 18 29 8 7 27 35 0
split_gain=6.82509e+12 2.64149e+12 1.48731e+12 1.24386e+12 4.79064e+11 2.71735e+11 2.37399e+11 2.02164e+11 1.85816e+11 1.51485e+11 1.32109e+11 9.97363e+10 8.55265e+10 9.01684e+10 8.19007e+10 7.92793e+10 6.82823e+10 6.68807e+10 7.93438e+10 8.17331e+10 6.61871e+10 6.33992e+10 6.0273e+10 5.81868e+10 9.80998e+10 5.72539e+10 5.43529e+10 5.33732e+10 5.03559e+10 4.86999e+10
threshold=73714.285714285725 252285.71428571432 37868.131868131873 126521.97802197804 672500.00000000012 54010.989010989018 173500.00000000003 20236.26373626374 94730.769230769234 502500.00000000006 774000.00000000012 150483.33333333337 312500.00000000006 634541.00000000012 259500.00000000003 1.0000000180025095e-35 19250.000000000004 68500.000000000015 121683.33333333336 124500.00000000001 210500.00000000003 92500.000000000015 124500.00000000001 56500.000000000007 147500.00000000003 238500.00000000003 157500.00000000003 89500.000000000015 43383.333333333336 677737.50000000012
decision_type=2 2 2 2 2 2 10 2 2 10 8 10 8 2 10 8 8 8 8 10 10 10 10 8 10 10 8 10 10 2
left_child=2 3 7 8 9 16 15 -1 23 12 -6 -10 -3 -14 20 22 -4 21 19 27 -8 -17 -5 24 -2 -15 -20 -19 -9 -23
right_child=1 4 5 6 10 -7 14 28 11 -11 -12 -13 13 25 -16 17 -18 18 26 -21 -22 29 -24 -25 -26 -27 -28 -29 -30 -31
leaf_value=-1290.4018319018412 1428.5840050249685 5377.6389201660159 3228.8282120028412 9109.9549851940519 13979.676337890625 187.88530217675589 3603.5545462626797 -750.81432805214683 1531.7962912568287 14737.192518578506 24702.708242910881 -5213.3596235795458 6886.0488864272384 16515.68774902344 8725.6956440172708 -4516.7853643002718 -298.34155712890987 10.767413330078126 2094.365367044657 10938.47890625 5350.1103394848724 2604.9407042684434 3325.5045376090115 746.14502295357761 6737.2392518739452 10267.745688920455 3015.3217307328027 5897.2938930777618 -2764.5432506881716 -1921.4310805376838
leaf_weight=11834 588 75 55 31 20 21533 930 18907 6139 41 27 22 67 20 38 23 26297 24 1688 21 283 79 43 9318 37 55 1033 43 125 34
leaf_count=11834 588 75 55 31 20 21533 930 18907 6139 41 27 22 67 20 38 23 26297 24 1688 21 283 79 43 9318 37 55 1033 43 125 34
internal_value=0 1616.81 -424.553 1478.53 10854.2 -75.6431 2995.93 -965.847 1076.18 9162.61 20139.7 1507.71 8109.35 9552.15 4154.25 2515.95 -290.98 2434.72 2539.58 5494.89 4011.04 268.938 5748.72 808.797 1742.86 11933.9 2444 3788.69 -764.04 1243.02
internal_weight=0 20679 78751 20374 305 47885 4270 30866 16104 258 47 6161 217 142 1251 3019 26352 2945 2809 88 1213 136 74 9943 625 75 2721 67 19032 113
internal_count=99430 20679 78751 20374 305 47885 4270 30866 16104 258 47 6161 217 142 1251 3019 26352 2945 2809 88 1213 136 74 9943 625 75 2721 67 19032 113
is_linear=0
shrinkage=0.1


Tree=13
num_leaves=31
num_cat=0
split_feature=34 34 34 34 8 34 34 34 22 22 21 33 3 14 34 34 26 36 8 27 10 34 29 27 15 36 8 8 12 25
split_gain=5.52924e+12 1.97256e+12 1.58204e+12 7.13289e+11 3.91478e+11 3.21288e+11 2.59734e+11 1.61372e+11 1.36481e+11 9.96324e+10 1.26199e+11 8.49967e+10 8.45404e+10 7.70958e+10 6.90194e+10 6.32609e+10 5.88037e+10 1.30933e+11 5.23763e+10 4.984e+10 4.89999e+10 4.52651e+10 4.48767e+10 6.02892e+10 4.90331e+10 4.25298e+10 6.31373e+10 4.23951e+10 3.95193e+10 3.76135e+10
threshold=85637.362637362647 252285.71428571432 45763.736263736275 145791.20879120883 646000.00000000012 28780.219780219784 66554.94505494507 115593.4065934066 314500.00000000006 21500.000000000004 266500.00000000006 1045500.0000000001 590500.00000000012 400000.00000000006 10285.714285714286 200807.69230769234 127500.00000000001 179642.85714285719 195500.00000000003 223500.00000000003 381000.00000000006 56357.142857142862 187500.00000000003 155500.00000000003 47500.000000000007 100214.28571428572 75500.000000000015 120500.00000000001 103500.00000000001 5500.0000000000009
decision_type=2 2 2 2 10 2 2 2 8 8 10 8 8 10 2 2 10 10 10 10 10 2 10 10 10 8 10 10 8 8
left_child=2 3 5 7 8 14 21 27 19 -5 15 -6 13 20 -1 -11 18 22 25 -3 -10 -4 24 -24 -18 26 -9 -2 -28 -8
right_child=1 4 6 9 11 -7 29 16 12 10 -12 -13 -14 -15 -16 -17 17 -19 -20 -21 -22 -23 23 -25 -26 -27 28 -29 -30 -31
leaf_value=-1440.8846407131387 986.51544117663093 597.4816853841146 -131.47926437402111 -1954.8213121568836 13780.143878728693 -488.17211878518276 1568.5179752579654 -788.27880371093761 8232.1225253105167 3000.6971652948168 9415.5783491654838 22385.382647101083 15042.650782071629 11338.281327776229 -948.41257851816249 4608.813110858353 -1974.5310492082078 -5594.4004810474544 4392.5986314086913 6296.3579461348691 2665.2966285342263 119.45004877445872 1420.4378236428286 7502.4313432965973 1434.2038974059888 1969.2842748197718 7965.3583049665176 1730.1864112060387 3246.3722452587554 489.33788263365841
leaf_weight=3477 7194 21 17629 37 22 23912 332 20 64 2093 33 24 26 70 15677 277 44 27 100 57 21 12139 39 28 1031 2239 35 858 36 11868
leaf_count=3477 7194 21 17629 37 22 23912 332 20 64 2093 33 24 26 70 15677 277 44 27 100 57 21 12139 39 28 1031 2239 35 858 36 11868
internal_value=0 1812.38 -306.831 1640.16 9768.75 -732.629 130.108 1314.57 8258.9 3194.87 3274.16 18269.8 9765.83 8880.69 -1037.81 3188.65 1871.24 1288.45 2151.6 4762.05 6856.79 -29.1536 1451.18 3962.17 1294.68 2055.42 4174.63 1065.76 5572.63 518.706
internal_weight=0 14396 85034 14091 305 43066 41968 11651 259 2440 2403 46 181 155 19154 2370 3599 1169 2430 78 85 29768 1142 67 1075 2330 91 8052 71 12200
internal_count=99430 14396 85034 14091 305 43066 41968 11651 259 2440 2403 46 181 155 19154 2370 3599 1169 2430 78 85 29768 1142 67 1075 2330 91 8052 71 12200
is_linear=0
shrinkage=0.1


Tree=14
num_leaves=31
num_cat=0
split_feature=34 34 34 34 1 34 34 34 15 20 34 37 21 30 1 0 27 0 37 15 30 7 35 22 10 18 1 11 15 27
split_gain=4.50128e+12 1.7315e+12 9.94088e+11 8.23982e+11 3.27713e+11 1.82631e+11 1.66677e+11 1.48398e+11 1.3231e+11 1.08894e+11 8.26376e+10 7.58313e+10 1.80642e+11 8.08966e+10 6.59197e+10 8.31878e+10 6.09042e+10 6.01264e+10 5.9682e+10 5.44145e+10 5.36954e+10 5.77647e+10 5.08533e+10 5.00601e+10 4.57089e+10 5.69969e+10 5.25104e+10 4.28927e+10 9.11088e+10 5.9274e+10
threshold=73714.285714285725 252285.71428571432 40428.571428571442 120565.93406593408 672500.00000000012 158895.60439560443 18461.538461538468 59532.967032967041 856500.00000000012 483500.00000000006 93934.065934065948 73833.333333333358 206500.00000000003 156500.00000000003 180500.00000000003 676433.00000000012 504500.00000000006 634541.00000000012 40166.666666666679 304500.00000000006 97500.000000000015 48500.000000000007 85816.666666666672 81500.000000000015 205500.00000000003 99500.000000000015 45500.000000000007 148500.00000000003 151500.00000000003 149500.00000000003
decision_type=2 2 2 2 2 2 2 2 8 10 2 8 8 10 2 2 10 2 8 10 8 10 10 8 10 8 2 10 8 8
left_child=2 3 6 10 9 11 -1 -4 -6 14 18 12 13 -5 -3 17 -11 19 20 -16 21 -2 -9 -12 25 26 -13 29 -29 -7
right_child=1 4 7 5 8 27 -8 22 -10 16 23 24 -14 -15 15 -17 -18 -19 -20 -21 -22 -23 -24 -25 -26 -27 -28 28 -30 -31
leaf_value=-1070.6515685352213 1409.9029809570313 11843.624995117189 -156.85248753065318 4464.7899948532522 11051.932107676632 7998.8174580891928 -598.07447118363189 250.29338303829687 21665.852620442711 8361.822460033276 34.908607149865347 7471.6936921296292 11431.803227887836 -3306.059687151228 4147.7932441348121 668.2272618611654 15364.477997622285 10027.436115722658 613.99177765551428 8750.4590054898654 1392.327342932565 8558.2996110916138 -2343.4821729534551 1215.9986865225817 139.5068226488587 1788.0669997427701 2829.6358541320806 176.14622263865431 3188.3269572142976 3722.2741222675031
leaf_weight=10980 20 20 30439 37 23 36 23302 13954 24 27 386 27 28 21 84 27 23 40 9419 37 112 26 76 5104 153 3266 250 111 1053 325
leaf_count=10980 20 20 30439 37 23 36 23302 13954 24 27 386 27 28 21 84 27 23 40 9419 37 112 26 76 5104 153 3266 250 111 1053 325
internal_value=0 1313.02 -344.783 1201.07 8791.87 2272.61 -749.434 -32.8306 16471.8 7392.81 823.639 1900.1 4835.59 1651.21 6385.55 5804.9 11583 6666.33 646.324 5555.22 2573.76 5450.3 236.243 1132.96 1831.8 1904.87 3282.11 3196.43 2901.08 4148.74
internal_weight=0 20679 78751 20374 305 5307 34282 44469 47 258 15067 3782 86 58 208 188 50 161 9577 121 158 46 14030 5490 3696 3543 277 1525 1164 361
internal_count=99430 20679 78751 20374 305 5307 34282 44469 47 258 15067 3782 86 58 208 188 50 161 9577 121 158 46 14030 5490 3696 3543 277 1525 1164 361
is_linear=0
shrinkage=0.1


Tree=15
num_leaves=31
num_cat=0
split_feature=34 34 34 34 1 34 34 22 34 20 22 5 11 22 1 37 25 31 14 34 12 37 17 5 5 1 1 34 33 33
split_gain=3.64992e+12 1.34332e+12 9.43802e+11 5.59469e+11 2.65447e+11 1.71973e+11 1.56226e+11 1.15583e+11 9.55976e+10 8.97419e+10 7.79209e+10 7.09083e+10 6.91636e+10 6.22213e+10 5.69728e+10 7.52606e+10 5.58775e+10 6.48795e+10 5.5614e+10 5.31549e+10 5.02537e+10 4.41383e+10 8.60423e+10 4.3985e+10 4.34761e+10 4.99526e+10 4.27225e+10 4.25006e+10 4.21159e+10 4.10046e+10
threshold=80351.648351648371 252285.71428571432 43285.71428571429 133060.43956043958 672500.00000000012 25796.703296703297 61769.230769230773 867500.00000000012 105175.82417582419 502500.00000000006 173500.00000000003 105500.00000000001 276500.00000000006 266500.00000000006 200500.00000000003 248333.33333333334 52500.000000000007 171500.00000000003 158500.00000000003 171978.02197802201 79500.000000000015 71166.666666666672 115500.00000000001 84500.000000000015 26500.000000000004 133500.00000000003 17500.000000000004 9456.0439560439572 497500.00000000006 103500.00000000001
decision_type=2 2 2 2 2 2 2 8 2 10 10 10 10 8 2 10 8 10 10 2 10 8 10 10 8 2 2 2 10 10
left_child=2 3 5 8 9 27 23 -6 -2 13 12 -12 19 -3 -15 -16 20 21 -19 -5 -10 22 -18 26 -8 -26 -4 -1 -11 -22
right_child=1 4 6 10 7 -7 24 -9 16 28 11 -13 -14 14 15 -17 17 18 -20 -21 29 -23 -24 -25 25 -27 -28 -29 -30 -31
leaf_value=-1256.7654799466818 732.34071298941899 2748.1919951782229 549.34322836282558 1875.1837791790044 9062.7328820800794 -460.06144944701123 1170.288990709593 19092.694943576389 7630.1462126358692 7816.425441778274 6719.7890850714921 2947.7692596896968 -2270.5651604546442 11639.547074962798 529.62080543154764 6999.4932576049805 516.25267609627019 292.92808968771072 -4261.729267883301 2955.5160665496373 4466.0328183543925 1272.8418125009857 8316.8128929725062 -779.72269027745722 290.39159557208262 -1354.5523608202602 -96.84980132426395 -815.81598107471564 14228.37964355469 353.74522298177089
leaf_weight=2623 8784 50 1064 1824 20 22936 556 27 23 21 53 835 36 21 21 125 31 105 36 607 49 4196 26 907 14446 187 26638 13115 20 48
leaf_count=2623 8784 50 1064 1824 20 22936 556 27 23 21 53 835 36 21 21 125 31 105 36 607 49 4196 26 907 14446 187 26638 13115 20 48
internal_value=0 1336.13 -274.737 1215.68 7912.68 -634.739 43.1477 14824.6 924.546 6653.53 2369.64 3172.9 2080.5 5842.85 6769.4 6068.9 1298.57 1240.42 -869.963 2144.93 3427.57 1310.39 4074.4 -94.4665 302.349 269.37 -72.0303 -889.308 10944.2 2431.09
internal_weight=0 16958 82472 16653 305 38674 43798 47 13298 258 3355 888 2467 217 167 146 4514 4394 141 2431 120 4253 57 28609 15189 14633 27702 15738 41 97
internal_count=99430 16958 82472 16653 305 38674 43798 47 13298 258 3355 888 2467 217 167 146 4514 4394 141 2431 120 4253 57 28609 15189 14633 27702 15738 41 97
is_linear=0
shrinkage=0.1


Tree=16
num_leaves=31
num_cat=0
split_feature=34 34 34 34 4 34 8 8 1 8 1 0 35 21 21 30 0 35 5 11 35 37 15 28 37 37 3 15 35 23
split_gain=2.9711e+12 1.13484e+12 6.75102e+11 5.47689e+11 2.18009e+11 1.40451e+11 1.22924e+11 9.52194e+10 9.32553e+10 9.15595e+10 8.87409e+10 7.70434e+10 5.91496e+10 1.05668e+11 5.88496e+10 1.04317e+11 5.7131e+10 5.5756e+10 5.23607e+10 4.97341e+10 5.05613e+10 7.16932e+10 4.91706e+10 5.94568e+10 5.49808e+10 9.39551e+10 4.91099e+10 4.40424e+10 4.36228e+10 3.87803e+10
threshold=73714.285714285725 252285.71428571432 36390.109890109896 122829.67032967033 846500.00000000012 51351.648351648357 173500.00000000003 14500.000000000002 590500.00000000012 91500.000000000015 200500.00000000003 676433.00000000012 111216.66666666667 124500.00000000001 171500.00000000003 132500.00000000003 634541.00000000012 20516.666666666668 98500.000000000015 189500.00000000003 71916.666666666672 42166.666666666679 115500.00000000001 54500.000000000007 35500.000000000007 73833.333333333358 -26499.999999999996 60500.000000000007 97650.000000000015 91500.000000000015
decision_type=2 2 2 2 10 2 10 10 2 10 2 2 8 10 8 8 2 8 10 10 8 10 8 8 8 8 10 8 10 10
left_child=2 3 7 9 8 17 12 -1 10 19 -3 16 13 18 -8 -16 -12 -4 -5 20 21 -2 23 -14 -24 -26 -10 -7 -29 -25
right_child=1 4 5 6 -6 27 14 -9 26 -11 11 -13 22 -15 15 -17 -18 -19 -20 -21 -22 -23 24 29 25 -27 -28 28 -30 -31
leaf_value=-904.74646814006383 6959.4149589843764 10868.58868233817 2449.5448687664971 -1985.9557263183594 16068.810175781249 -64.519681744233566 1689.7931708884962 -527.01684287291812 14296.730584716797 958.81776918743731 4422.7047706604008 357.39883193969729 -4468.4410356001417 10584.667529296876 8275.690547902961 2926.891702430124 8201.9584562174477 -245.71716911552713 4364.7828685863597 -2131.3014947551574 447.36681215985294 1323.1471308741077 -3085.609102376302 -494.29446194539935 8086.6538361922567 1670.6075888514961 7288.8828454589857 205.80091008915153 -4060.7013509114586 1445.7557894055717
leaf_weight=10815 25 28 77 20 25 10331 396 17428 20 6755 120 32 22 20 38 901 60 23835 37 73 8348 232 24 149 23 2977 20 16241 24 334
leaf_count=10815 25 28 77 20 25 10331 396 17428 20 6755 120 32 22 20 38 901 60 23835 37 73 8348 232 24 149 23 2977 20 16241 24 334
internal_value=0 1066.75 -280.115 976.112 7121.42 -61.1715 1892.43 -671.66 6322.54 682.745 5577.5 4878.67 1588.94 4330.79 2712.18 3143.35 5682.46 -237.038 2136.45 467.848 489.898 1871.42 1529.12 615.697 1681.66 1719.8 10792.8 96.947 199.505 847.272
internal_weight=0 20679 78751 20374 305 50508 4941 28243 280 15433 240 212 3606 77 1335 939 180 23912 57 8678 8605 257 3529 505 3024 3000 40 26596 16265 483
internal_count=99430 20679 78751 20374 305 50508 4941 28243 280 15433 240 212 3606 77 1335 939 180 23912 57 8678 8605 257 3529 505 3024 3000 40 26596 16265 483
is_linear=0
shrinkage=0.1


Tree=17
num_leaves=31
num_cat=0
split_feature=34 34 34 34 1 34 34 2 3 33 30 18 17 22 37 34 18 14 34 34 7 37 22 34 35 37 37 35 30 35
split_gain=2.42424e+12 8.16565e+11 7.63341e+11 2.83946e+11 1.76997e+11 1.71999e+11 1.28899e+11 1.05509e+11 7.01734e+10 7.45709e+10 6.95497e+10 6.75695e+10 7.615e+10 5.22043e+10 5.16986e+10 4.89675e+10 5.54316e+10 5.03012e+10 5.53068e+10 4.7445e+10 4.40878e+10 4.32961e+10 4.13627e+10 4.10432e+10 3.9441e+10 3.82081e+10 3.63111e+10 3.60737e+10 3.52843e+10 3.33581e+10
threshold=89961.538461538483 252285.71428571432 46813.186813186818 145791.20879120883 672500.00000000012 30445.054945054948 67664.835164835167 65500.000000000007 248500.00000000003 481500.00000000006 238500.00000000003 292500.00000000006 1.0000000180025095e-35 1.0000000180025095e-35 81166.666666666672 115593.4065934066 132500.00000000003 188500.00000000003 126521.97802197804 200807.69230769234 460500.00000000006 65833.333333333358 85500.000000000015 12170.329670329673 52216.666666666679 28166.666666666668 89166.666666666672 20516.666666666668 137500.00000000003 84050.000000000015
decision_type=2 2 2 2 2 2 2 8 10 10 8 10 8 8 10 2 10 10 2 2 10 8 8 2 10 8 10 8 10 8
left_child=2 3 5 15 8 23 14 -6 9 10 -3 12 -5 -14 25 22 21 -18 28 -15 -12 -17 -2 -1 27 -4 -8 -7 -19 -24
right_child=1 4 6 11 7 24 26 -9 -10 -11 20 -13 13 19 -16 16 17 18 -20 -21 -22 -23 29 -25 -26 -27 -28 -29 -30 -31
leaf_value=-920.92215755620828 85.300048684228841 -1466.3635534667969 1063.3733241828593 6631.2846384148861 7415.1169616699226 2171.5398569234217 456.57955011156702 16893.282076628311 10530.749368286133 9258.6444424715919 4038.420565266927 -3035.5702725524902 -1892.6639404296875 2006.5345377535032 -975.24209687998814 5918.8696610884235 857.21729766293402 -1314.6248129708429 1219.6878509521484 3383.143183738307 8181.0100475680447 1462.1333486913481 4433.0413537002523 -597.58377381415335 -1898.6088398207103 10.386056437217555 -13.179343453192898 -283.49537782426796 -6539.886014811198 842.53355820509535
leaf_weight=5185 790 20 349 38 24 60 10997 23 24 33 150 25 32 2060 528 22 1112 28 40 285 31 2373 26 16165 151 27305 1935 24189 24 5406
leaf_count=5185 790 20 349 38 24 60 10997 23 24 33 150 25 32 2060 528 22 1112 28 40 285 31 2373 26 16165 151 27305 1935 24189 24 5406
internal_value=0 1298.23 -187.805 1171.09 6409.27 -468.826 124.904 12053.4 5381.09 4852.92 4129.59 2136.55 2190.1 2119.1 4.95993 931.217 1224.81 671.301 -1575.86 2173.84 4747.92 1503.07 761.392 -676.109 -287.454 23.675 386.29 -277.421 -3726.28 859.719
internal_weight=0 12566 86864 12261 305 45750 41114 47 258 234 201 2440 2415 2377 28182 9821 3599 1204 92 2345 181 2395 6222 21350 24400 27654 12932 24249 52 5432
internal_count=99430 12566 86864 12261 305 45750 41114 47 258 234 201 2440 2415 2377 28182 9821 3599 1204 92 2345 181 2395 6222 21350 24400 27654 12932 24249 52 5432
is_linear=0
shrinkage=0.1


Tree=18
num_leaves=31
num_cat=0
split_feature=34 34 34 34 8 1 34 1 8 4 0 8 15 21 5 4 8 37 7 18 27 26 18 7 8 6 36 31 15 20
split_gain=1.97285e+12 6.88418e+11 5.59016e+11 2.67891e+11 1.69554e+11 1.76397e+11 1.251e+11 1.18357e+11 1.01734e+11 8.80474e+10 7.40152e+10 6.95544e+10 5.89621e+10 7.3216e+10 4.72922e+10 4.48041e+10 4.40255e+10 4.20764e+10 4.1184e+10 4.35677e+10 3.93865e+10 3.91079e+10 3.73632e+10 3.70146e+10 4.63451e+10 5.88887e+10 4.05255e+10 4.8205e+10 3.8092e+10 3.46863e+10
threshold=84983.516483516505 252285.71428571432 45862.637362637368 145791.20879120883 505500.00000000006 480500.00000000006 29582.417582417587 188500.00000000003 65500.000000000007 846500.00000000012 676433.00000000012 119500.00000000001 1.0000000180025095e-35 282500.00000000006 22500.000000000004 98500.000000000015 10500.000000000002 84500.000000000015 219500.00000000003 263500.00000000006 203500.00000000003 104500.00000000001 46500.000000000007 281500.00000000006 67500.000000000015 138500.00000000003 70785.714285714304 68500.000000000015 135500.00000000003 132500.00000000003
decision_type=2 2 2 2 8 2 2 2 10 8 2 10 8 10 8 10 10 10 10 10 10 10 10 10 8 10 8 10 10 10
left_child=2 3 6 11 7 -6 16 -3 14 -7 -9 23 -5 18 -4 -16 -1 21 19 -14 -19 -13 29 24 25 -2 27 -26 -27 -10
right_child=1 4 8 12 5 9 -8 10 22 -11 -12 17 13 -15 15 -17 -18 20 -20 -21 -22 -23 -24 -25 26 28 -28 -29 -30 -31
leaf_value=-810.26956245331178 244.83092811529389 10808.422325067935 651.16647598344855 -1837.3361334079652 2831.7280345678332 9529.1077697753917 -276.38301967937758 3933.3270450689852 542.02417254091063 17201.104842122397 -2390.4301932198664 3338.5046785809918 1831.1324737684545 7729.5315485174015 -42.885005372343421 -1177.0417677447074 -505.27655552303059 1138.9929234606025 3066.2717473717548 -2368.5905017089844 -1450.1068482462567 -10.187008768717448 203.27246447119455 4081.4348821824601 862.13928333629269 -3144.7800946442981 666.47477811109081 6752.2161437988289 1487.1723274230958 3096.0854503490309
leaf_weight=7446 554 23 975 41 32 52 22997 156 3474 21 21 155 2069 22 26244 353 12989 2833 283 25 60 45 10136 31 33 92 8168 24 22 54
leaf_count=7446 554 23 975 41 32 52 22997 156 3474 21 21 155 2069 22 26244 353 12989 2833 283 25 60 45 10136 31 33 92 8168 24 22 54
internal_value=0 1066.78 -185.995 967.592 5768.35 9022.4 -436.367 4059.97 77.7104 11736.1 3183.05 773.621 1922.9 1987.16 -32.8624 -57.9377 -616.408 1182.27 1934.01 1780.99 1085.3 2585.05 300.831 631.984 619.96 -181.086 685.018 3342.17 -2250.89 581.117
internal_weight=0 14762 84668 14457 305 105 43432 200 41236 73 177 12017 2440 2399 27572 26597 20435 3093 2377 2094 2893 200 13664 8924 8893 668 8225 57 114 3528
internal_count=99430 14762 84668 14457 305 105 43432 200 41236 73 177 12017 2440 2399 27572 26597 20435 3093 2377 2094 2893 200 13664 8924 8893 668 8225 57 114 3528
is_linear=0
shrinkage=0.1


Tree=19
num_leaves=31
num_cat=0
split_feature=34 34 34 34 19 3 5 8 34 28 22 7 8 34 35 1 15 7 29 25 11 6 2 21 5 22 25 3 35 17
split_gain=1.61234e+12 6.21323e+11 3.36612e+11 2.66855e+11 2.08911e+11 8.41155e+10 7.2701e+10 6.83213e+10 6.77999e+10 6.11871e+10 5.89364e+10 6.21762e+10 5.35643e+10 5.18462e+10 5.01781e+10 7.09102e+10 5.52524e+10 5.12739e+10 5.02529e+10 8.22188e+10 4.72441e+10 4.54042e+10 4.30462e+10 5.78599e+10 4.10664e+10 6.39002e+10 6.5603e+10 4.25167e+10 3.81346e+10 3.76809e+10
threshold=70879.120879120892 200807.69230769234 35324.175824175829 120565.93406593408 634000.00000000012 205500.00000000003 855500.00000000012 91500.000000000015 51846.153846153851 867500.00000000012 152500.00000000003 327500.00000000006 14500.000000000002 252285.71428571432 108650.00000000001 87500.000000000015 160500.00000000003 248500.00000000003 182500.00000000003 119500.00000000001 166500.00000000003 194500.00000000003 -88499.999999999985 184500.00000000003 44500.000000000007 121500.00000000001 38500.000000000007 -63499.999999999993 78650.000000000015 459500.00000000006
decision_type=2 2 2 2 10 8 8 10 2 8 8 10 10 2 8 2 8 10 10 10 10 10 8 8 8 10 8 8 10 10
left_child=2 3 12 7 5 10 13 20 -4 -6 -3 -12 -1 -7 15 -5 18 22 21 -20 24 -16 23 -18 25 26 -2 -26 -10 -13
right_child=1 4 8 14 9 6 -8 -9 28 -11 11 29 -14 -15 16 -17 17 -19 19 -21 -22 -23 -24 -25 27 -27 -28 -29 -30 -31
leaf_value=-679.37620972487275 4441.3354187012337 -1827.3437504882813 -175.46306222207667 8743.973152087985 7008.282683454242 4651.8961264870386 1716.8616338315217 715.47210984794299 66.699402395767393 14736.818583984377 2533.5980451906162 6695.7281630572152 -391.01144039287396 10919.064621803978 943.45773650449667 2047.2235857963562 2800.5849535773782 4806.6606517558203 8301.9626758077866 1664.7772650824654 -1461.1754960335343 -886.18812115987157 1629.1722908761521 -2318.1768353053503 -595.19109654843237 5886.26048060826 519.58043928818677 337.56886322501578 -2080.6337961219883 2730.2079312711153
leaf_weight=10642 48 25 26352 21 21 22 23 6641 23097 20 361 68 16320 33 2334 64 34 49 23 99 149 144 2171 63 515 28 383 9560 83 37
leaf_count=10642 48 25 26352 21 21 22 23 6641 23097 20 361 68 16320 33 2334 64 34 49 23 99 149 144 2171 63 515 28 383 9560 83 37
internal_value=0 735.401 -220.503 649.37 3884.17 3387.4 6437.93 463.598 -65.7341 10778.3 2902.8 3156.56 -504.83 8412.2 1292.77 3701.71 1251.13 1606.23 934.684 2916.05 307.022 837.134 1537.08 -523.972 332.033 1257.08 956.342 289.889 59.0105 5298.35
internal_weight=0 22936 76494 22326 610 569 78 17324 49532 41 491 466 26962 55 5002 85 4917 2317 2600 122 10683 2478 2268 97 10534 459 431 10075 23180 105
internal_count=99430 22936 76494 22326 610 569 78 17324 49532 41 491 466 26962 55 5002 85 4917 2317 2600 122 10683 2478 2268 97 10534 459 431 10075 23180 105
is_linear=0
shrinkage=0.1


Tree=20
num_leaves=31
num_cat=0
split_feature=8 8 8 7 21 16 2 13 8 8 37 13 8 22 36 15 28 2 18 3 13 37 7 12 25 37 9 3 37 26
split_gain=1.16459e+12 4.09975e+11 3.05586e+11 2.2081e+11 1.14199e+11 8.77167e+10 8.63021e+10 6.71824e+10 6.1728e+10 5.87326e+10 7.55915e+10 5.84995e+10 5.18618e+10 5.1191e+10 4.95444e+10 4.55735e+10 5.20221e+10 4.52449e+10 5.65293e+10 3.4364e+10 3.29499e+10 3.04015e+10 3.03928e+10 2.85037e+10 3.48711e+10 2.7763e+10 2.73454e+10 4.86551e+10 3.33808e+10 2.91221e+10
threshold=85500.000000000015 400000.00000000006 45500.000000000007 157500.00000000003 114500.00000000001 26500.000000000004 105500.00000000001 208500.00000000003 243500.00000000003 64500.000000000007 178833.33333333334 68500.000000000015 1.0000000180025095e-35 113500.00000000001 1.0000000180025095e-35 81500.000000000015 190500.00000000003 -25499.999999999996 532500.00000000012 158500.00000000003 474500.00000000006 168500.00000000003 203500.00000000003 148500.00000000003 135500.00000000003 144166.66666666672 21500.000000000004 117500.00000000001 41500.000000000007 198500.00000000003
decision_type=10 10 8 10 8 8 10 10 10 10 10 10 10 8 10 10 10 10 8 10 8 10 10 10 10 10 10 10 10 10
left_child=2 3 5 13 -3 11 17 15 -5 10 -4 14 22 25 -1 16 21 18 -6 -10 -19 -7 -13 24 -17 -2 27 -15 -28 -30
right_child=1 4 9 8 6 7 -8 -9 19 -11 -12 12 -14 26 -16 23 -18 20 -20 -21 -22 -23 -24 -25 -26 -27 28 -29 29 -31
leaf_value=1287.2593077233062 434.55725013125198 -652.25552739682416 -48.077491152866131 1534.85531134553 10874.602291992189 -258.43721095230717 11087.294940350508 4024.4591440561658 2914.7563946901255 207.60027375494647 3289.7681410845589 -2803.9347488104131 85.600622806033584 462.90796295722907 -528.06527398684193 787.04878971751145 4840.4465380859374 679.06113671875005 4332.3760175432481 7263.186633300782 6052.1750325520843 -3977.4341175426143 724.30607864945023 3083.3319445021612 -2321.453219909668 -1197.2246466294775 3382.7160460274172 -2682.0101757121538 895.64965570854747 -673.1749182835099
leaf_weight=152 6374 23 30463 1820 25 25222 37 37 199 13856 68 255 111 685 13800 369 20 25 28 20 21 22 27 47 40 106 53 53 5351 121
leaf_count=152 6374 23 30463 1820 25 25222 37 37 199 13856 68 255 111 685 13800 369 20 25 28 20 21 22 27 47 40 106 53 53 5351 121
internal_value=0 813.839 -143.919 759.511 5864.6 -344.003 6966.72 -233.63 1725.72 36.8493 -40.6433 -542.181 -1745.41 604.909 -508.288 -239.756 -257.639 5426.7 7418.33 3311.87 3132 -261.678 -2466.12 751.051 483.039 407.865 808.781 237.053 885.15 860.959
internal_weight=0 14941 84489 14782 159 40102 136 25757 2039 44387 30531 14345 393 12743 13952 25720 25264 99 53 219 46 25244 282 456 409 6480 6263 738 5525 5472
internal_count=99430 14941 84489 14782 159 40102 136 25757 2039 44387 30531 14345 393 12743 13952 25720 25264 99 53 219 46 25244 282 456 409 6480 6263 738 5525 5472
is_linear=0
shrinkage=0.1


Tree=21
num_leaves=31
num_cat=0
split_feature=36 16 15 19 4 37 20 15 24 22 15 15 26 18 23 15 36 15 11 13 17 29 21 4 0 11 10 4 0 14
split_gain=7.80686e+11 3.21863e+11 2.85597e+11 1.53352e+11 1.30266e+11 1.02236e+11 9.73254e+10 6.89708e+10 6.24746e+10 6.11588e+10 5.86856e+10 5.73472e+10 5.66399e+10 5.0527e+10 4.39608e+10 4.39511e+10 4.36461e+10 4.17478e+10 3.85339e+10 3.47813e+10 3.45252e+10 3.317e+10 4.62247e+10 3.64086e+10 3.29916e+10 2.93407e+10 2.89825e+10 2.83015e+10 2.82262e+10 2.81749e+10
threshold=101500.00000000001 42500.000000000007 240500.00000000003 634000.00000000012 61500.000000000007 164166.66666666672 198500.00000000003 160500.00000000003 481500.00000000006 15500.000000000002 82500.000000000015 60500.000000000007 62500.000000000007 261500.00000000003 324500.00000000006 126500.00000000001 265285.71428571438 130500.00000000001 61500.000000000007 54500.000000000007 167500.00000000003 120500.00000000001 261500.00000000003 183500.00000000003 689171.50000000012 185500.00000000003 183500.00000000003 131500.00000000003 406799.50000000006 95500.000000000015
decision_type=10 8 10 10 10 10 10 10 10 8 8 10 8 10 10 10 10 10 10 10 10 8 10 10 2 10 10 10 2 10
left_child=1 9 7 8 6 10 11 13 12 19 -6 25 -4 16 28 24 21 -15 -17 -1 29 23 -23 -2 -12 26 -3 -26 -14 -13
right_child=2 4 3 -5 5 -7 -8 -9 -10 -11 15 20 14 17 -16 18 -18 -19 -20 -21 -22 22 -24 -25 27 -27 -28 -29 -30 -31
leaf_value=-539.79325210557931 439.81453415627249 -127.78969800430478 8058.0314147949221 9619.0908357319076 72.181297063269795 2923.3406679425921 5277.9693024579219 1420.7491464434688 -955.09823426942569 -267.39390315815433 404.43816492585188 193.45782159755493 4929.1260566711426 -4171.5329592973758 5994.8483282180059 5382.4408212167255 4778.8092970628013 1200.2246518342392 1310.6808406487198 -1424.4007641490502 -2633.114622279576 815.81211524882349 5129.2882634582529 -1648.8647348688937 -136.11715160242514 -3863.8901297433035 2931.3784536054059 -2631.2649800203289 2028.5096709618203 1246.8033637286126
leaf_weight=7135 2049 31127 24 38 13274 140 34 1482 37 22750 9976 5189 40 39 42 27 26 23 167 474 42 3978 25 87 629 21 31 49 208 267
leaf_count=7135 2049 31127 24 38 13274 140 34 1482 37 22750 9976 5189 40 39 42 27 26 23 167 474 42 3978 25 87 629 21 31 49 208 267
internal_value=0 -83.4366 941.027 3584.73 49.0277 228.824 -69.7984 807.624 2931.43 -349.478 213.186 -74.7559 3389.4 661.703 3003.03 385.724 690.269 -2178.78 1877.37 -594.9 223.019 672.954 842.751 354.742 358.563 -127.264 -124.746 -316.445 2496.35 245.005
internal_weight=0 91332 8098 389 60973 24262 36711 7709 351 30359 24122 36677 314 6227 290 10848 6165 62 194 7609 5498 6139 4003 2136 10654 31179 31158 678 248 5456
internal_count=99430 91332 8098 389 60973 24262 36711 7709 351 30359 24122 36677 314 6227 290 10848 6165 62 194 7609 5498 6139 4003 2136 10654 31179 31158 678 248 5456
is_linear=0
shrinkage=0.1


Tree=22
num_leaves=31
num_cat=0
split_feature=34 34 34 6 33 34 27 4 4 3 36 26 31 36 6 22 22 32 7 18 33 37 2 20 9 9 26 18 29 23
split_gain=9.25903e+11 3.63876e+11 1.96834e+11 1.67956e+11 1.18492e+11 9.06224e+10 5.58319e+10 5.52032e+10 7.19221e+10 5.56344e+10 4.83511e+10 4.56539e+10 9.68784e+10 7.52847e+10 4.47498e+10 4.1573e+10 4.06791e+10 3.98448e+10 3.77968e+10 3.90027e+10 3.60547e+10 4.05858e+10 1.05338e+11 3.45159e+10 5.56319e+10 4.10073e+10 3.94179e+10 3.34501e+10 3.16848e+10 3.12786e+10
threshold=68945.054945054959 158895.60439560443 33697.802197802208 354000.00000000006 515000.00000000006 108791.20879120882 112500.00000000001 846500.00000000012 452500.00000000006 75500.000000000015 78214.285714285725 109500.00000000001 1.0000000180025095e-35 179642.85714285719 276500.00000000006 867500.00000000012 57500.000000000007 72500.000000000015 199500.00000000003 77500.000000000015 172500.00000000003 71166.666666666672 -1.0000000180025095e-35 262500.00000000006 364000.00000000006 204500.00000000003 135500.00000000003 81500.000000000015 277500.00000000006 96500.000000000015
decision_type=2 2 2 10 8 2 8 10 10 8 10 10 8 10 10 8 8 10 10 10 10 8 10 10 10 8 8 10 10 10
left_child=2 5 -1 6 28 17 -3 8 -6 15 16 12 -7 -13 20 -10 -4 18 -2 -20 21 22 -14 24 25 26 -8 -12 -5 -23
right_child=1 3 10 4 7 11 23 -9 9 -11 27 13 14 -15 -16 -17 -18 -19 19 -21 -22 29 -24 -25 -26 -27 -28 -29 -30 -31
leaf_value=-404.34306828473672 416.02492938996204 5597.3575382008275 -147.9322150756455 -1875.9645776367188 10486.54750366211 6059.3550831041839 4093.4750387052213 11250.523188051971 2770.7807543945314 -399.51877441406253 -836.19405973470441 538.1703168157245 8626.5752499999999 -3780.5634380805786 -2741.5504122734073 9141.2764032273062 32.968794869026198 113.88826559002241 1031.3655899483817 6567.1565234375003 -1699.3162436803182 788.07820304267364 351.94390625000005 3515.2245281454957 -3842.2779614257815 2128.4034417033195 923.42859563443312 -3610.1772815410909 2978.9719646174735 1520.2114782542565
leaf_weight=24827 10467 34 23513 20 23 38 41 23 20 20 265 2602 25 41 32 21 26373 6436 35 20 48 1954 40 81 20 580 906 52 41 832
leaf_count=24827 10467 34 23513 20 23 38 41 23 20 20 265 2602 25 41 32 21 26373 6436 35 20 48 1954 40 81 20 580 906 52 41 832
internal_value=0 535.114 -174.021 1891.31 4904.54 425.153 1586.72 6909.76 5721.22 3924.46 -60.1192 773.474 1042.58 471.175 977.539 6033.72 -52.2961 309.881 429.764 3044.38 1018.59 1064.35 3534.49 1502.96 1397.6 1466.23 1060.67 -1291.23 1387.19 1006.72
internal_weight=0 24400 75030 1830 168 22570 1662 107 84 61 50203 5612 2969 2643 2931 41 49886 16958 10522 55 2899 2851 65 1628 1547 1527 947 317 61 2786
internal_count=99430 24400 75030 1830 168 22570 1662 107 84 61 50203 5612 2969 2643 2931 41 49886 16958 10522 55 2899 2851 65 1628 1547 1527 947 317 61 2786
is_linear=0
shrinkage=0.1


Tree=23
num_leaves=31
num_cat=0
split_feature=34 34 34 15 34 2 8 30 29 15 35 29 25 29 15 17 8 14 19 37 14 37 37 6 11 11 8 15 24 13
split_gain=7.60496e+11 2.56264e+11 2.39923e+11 9.23133e+10 8.88306e+10 7.75953e+10 6.85714e+10 5.80795e+10 5.44345e+10 4.89585e+10 4.64206e+10 4.33072e+10 3.96085e+10 3.83642e+10 3.76701e+10 4.1896e+10 3.61127e+10 4.68468e+10 5.30829e+10 3.94852e+10 3.93504e+10 3.25194e+10 3.21685e+10 3.00898e+10 3.9984e+10 2.92357e+10 2.88227e+10 3.22913e+10 2.84212e+10 2.63275e+10
threshold=91686.81318681319 47818.681318681323 252285.71428571432 709000.00000000012 135483.51648351652 105500.00000000001 23500.000000000004 527000.00000000012 289500.00000000006 482500.00000000006 157100.00000000003 75500.000000000015 34500.000000000007 244500.00000000003 170500.00000000003 195500.00000000003 80500.000000000015 185500.00000000003 204500.00000000003 84500.000000000015 170500.00000000003 74500.000000000015 68166.666666666672 240500.00000000003 126500.00000000001 26500.000000000004 215500.00000000003 116500.00000000001 89500.000000000015 93500.000000000015
decision_type=2 2 2 8 2 10 10 10 10 10 10 8 8 8 8 10 8 10 10 10 10 8 10 10 10 10 10 8 10 10
left_child=1 6 4 7 10 -5 29 9 14 13 16 -3 25 -4 15 23 17 18 22 20 -18 -16 -2 24 -6 28 -21 -28 -13 -1
right_child=2 11 3 5 8 -7 -8 -9 -10 -11 -12 12 -14 -15 21 -17 19 -19 -20 26 -22 -23 -24 -25 -26 -27 27 -29 -30 -31
leaf_value=-397.98756343987526 -2801.3721578458462 -34.676270238021701 -1842.159556652251 4355.0245774623327 2278.2773940129068 10752.632575871394 -160.99046314479858 -2398.9080152428669 6098.2679269964046 6183.6047394623638 -2465.925751201923 3915.002214128268 156.72882832824953 2769.3316021442415 5430.5977343750001 -893.1714043347589 1128.8403822876051 -3370.4851508730935 5019.0105118524461 490.08822481435038 5511.6440580822173 1374.0166078156817 85.133880353550182 -1901.5945757891682 728.20091533692948 632.04474999400929 -281.75393295288086 3403.7371815708707 656.26755219335155 -1985.8555480957032
leaf_weight=18883 41 17575 21 70 201 26 28226 23 22 37 52 64 22413 128 20 145 836 42 21 6698 21 1658 662 37 967 284 36 70 46 105
leaf_count=18883 41 17575 21 70 201 26 28226 23 22 37 52 64 22413 128 20 145 836 42 21 6698 21 1658 662 37 967 284 36 70 46 105
internal_value=0 -101.651 752.43 3520.75 679.194 6087.71 -259.835 2341.66 1142.01 2927.86 512.713 83.294 174.201 2119.39 1106 712.767 531.094 -123.575 64.7812 596.552 1236.24 1422.37 -83.2114 906.012 994.952 1168.15 515.98 2152.06 2552.26 -406.768
internal_weight=0 87596 11834 305 11529 96 47214 209 3050 186 8479 40382 22807 149 3028 1350 8427 766 724 7661 857 1678 703 1205 1168 394 6804 106 110 18988
internal_count=99430 87596 11834 305 11529 96 47214 209 3050 186 8479 40382 22807 149 3028 1350 8427 766 724 7661 857 1678 703 1205 1168 394 6804 106 110 18988
is_linear=0
shrinkage=0.1


Tree=24
num_leaves=31
num_cat=0
split_feature=34 34 1 23 34 2 29 16 25 33 8 37 18 33 26 8 11 15 1 29 36 34 35 29 37 35 13 15 1 4
split_gain=6.23397e+11 2.46383e+11 1.66717e+11 1.64704e+11 1.32176e+11 1.05979e+11 9.55884e+10 9.50411e+10 7.36749e+10 6.14167e+10 5.2651e+10 4.52643e+10 4.50733e+10 5.89647e+10 4.2253e+10 3.95233e+10 3.91753e+10 7.13184e+10 3.85055e+10 3.59093e+10 3.5324e+10 3.49241e+10 3.55685e+10 3.4254e+10 3.33667e+10 3.30292e+10 3.29903e+10 3.28955e+10 4.00088e+10 4.81669e+10
threshold=68505.494505494527 145791.20879120883 480500.00000000006 672500.00000000012 31840.659340659342 -59499.999999999993 307500.00000000006 990500.00000000012 258500.00000000003 71500.000000000015 110500.00000000001 80500.000000000015 121500.00000000001 200500.00000000003 142500.00000000003 50500.000000000007 18500.000000000004 171500.00000000003 67500.000000000015 89500.000000000015 22357.142857142859 113109.89010989011 105183.33333333336 517000.00000000006 84500.000000000015 157100.00000000003 99500.000000000015 215500.00000000003 256500.00000000003 278500.00000000006
decision_type=2 2 2 8 2 8 10 8 10 8 10 10 10 10 10 10 8 10 2 8 8 2 8 8 10 10 10 10 2 10
left_child=4 10 6 23 -1 -5 9 -7 -8 19 12 15 21 14 -14 18 17 -11 20 -3 -6 -2 -23 -4 -16 -12 -13 28 -18 -30
right_child=1 2 3 5 11 7 8 -9 -10 16 25 26 13 -15 24 -17 27 -19 -20 -21 -22 22 -24 -25 -26 -27 -28 -29 29 -31
leaf_value=-345.5684525504102 250.05730313911081 -5801.7813476562505 2927.1280137634276 2638.1896839488636 927.29276516705579 6491.0642311789779 9185.5812080078122 15786.279225852275 2358.8942626953126 7950.0446304984716 649.45721726390946 -649.77816252856064 -241.41034186705701 4859.5576939174107 -5680.2174724232063 57.048624091311616 1017.0383008542229 -13.963825572620738 -528.35317974681072 118.88345565795899 -101.3665235530888 3475.5431009928384 749.16172044028008 -2625.2223244667057 -1441.0393684707769 -1711.8441902669272 -3159.4524204187228 1983.8373545034774 168.91768543638034 -5522.135979003906
leaf_weight=22692 15408 20 25 22 338 22 25 22 43 23 4660 646 905 21 22 21719 2056 22 2148 21 27064 51 775 20 119 60 57 346 58 20
leaf_count=22692 15408 20 25 22 338 22 25 22 43 23 4660 646 905 21 22 21719 2056 22 2148 21 27064 51 775 20 119 60 57 346 58 20
internal_value=0 434.762 1328.12 5124.46 -144.21 8305.18 1168.14 11138.7 4868.71 1070.07 323.401 -56.2932 242.637 -386.949 -492.28 -45.3651 1132.41 4056.53 -120.638 -2769.25 -88.6781 284.017 917.498 459.417 -2102.47 619.441 -853.265 1079.35 932.702 -1290.33
internal_weight=0 24766 2745 111 74664 66 2634 44 68 2566 22021 51972 17301 1067 1046 51269 2525 45 29550 41 27402 16234 826 45 141 4720 703 2480 2134 78
internal_count=99430 24766 2745 111 74664 66 2634 44 68 2566 22021 51972 17301 1067 1046 51269 2525 45 29550 41 27402 16234 826 45 141 4720 703 2480 2134 78
is_linear=0
shrinkage=0.1


Tree=25
num_leaves=31
num_cat=0
split_feature=34 7 34 34 1 8 12 19 14 29 5 8 6 15 8 25 34 0 7 22 24 15 36 37 34 10 6 28 12 10
split_gain=5.10234e+11 1.95083e+11 1.34428e+11 1.00909e+11 6.17448e+10 5.95867e+10 5.7104e+10 5.54641e+10 7.07032e+10 4.62942e+10 4.20835e+10 4.14796e+10 6.11612e+10 4.34548e+10 3.72223e+10 3.60978e+10 3.57434e+10 3.54331e+10 3.46982e+10 3.38749e+10 3.41787e+10 3.91397e+10 3.35966e+10 3.21624e+10 3.92486e+10 3.11671e+10 2.98951e+10 2.97422e+10 4.58391e+10 3.12311e+10
threshold=76895.604395604416 281500.00000000006 40736.263736263747 133060.43956043958 497500.00000000006 505500.00000000006 494000.00000000006 634000.00000000012 492500.00000000006 295500.00000000006 20500.000000000004 65500.000000000007 138500.00000000003 35500.000000000007 1.0000000180025095e-35 27500.000000000004 15302.197802197805 676433.00000000012 158500.00000000003 4500.0000000000009 7500.0000000000009 8500.0000000000018 45642.857142857152 83166.666666666672 60978.021978021985 51500.000000000007 129500.00000000001 78500.000000000015 112500.00000000001 88500.000000000015
decision_type=2 10 2 2 2 10 10 10 10 10 8 8 10 8 8 8 2 2 10 8 10 10 10 10 2 10 10 8 8 10
left_child=2 3 16 11 9 6 17 8 -7 27 15 12 -2 -14 19 25 -1 -3 -15 20 21 -12 -18 24 -16 -4 -27 -5 29 -29
right_child=1 5 10 4 -6 7 -8 -9 -10 -11 14 -13 13 18 23 -17 22 -19 -20 -21 -22 -23 -24 -25 -26 26 -28 28 -30 -31
leaf_value=-444.35111479197735 21.006469482909271 2102.290930366516 512.55043764451091 -1127.9991510752086 6201.344082919034 7167.7882128906249 -2266.5403056640625 8414.4828268140554 -1240.7310668945313 5173.81069140625 1879.8380609556689 368.14479163707574 -5482.0591040826621 -394.9753802755605 -51.948685414788805 268.51755606147975 -188.06925231951868 5545.4612546418848 -4737.5227698284643 -322.5573201584325 -2940.7960154490429 -2163.719458572953 -1063.3088262378367 -556.79755644962063 158.17848411587539 1936.9509322887161 6087.81134552002 4748.5398539225262 799.63953230297864 1715.3157856741871
leaf_weight=7930 1084 140 170 74 22 20 25 35 20 25 43 13865 31 92 29313 1440 26333 38 23 874 111 54 446 1019 12758 131 20 42 3075 177
leaf_count=7930 1084 140 170 74 22 20 25 35 20 25 43 13865 31 92 29313 1440 26333 38 23 874 111 54 446 1019 12758 131 20 42 3075 177
internal_value=0 469.317 -109.342 429.827 920.716 3098.68 2208.79 5507.31 2963.53 886.476 2.89197 318.771 -237.783 -2159.21 -16.2197 482.28 -257.869 2837.35 -1263.48 -595.519 -1742.48 -371.215 -202.646 -1.67341 11.7722 1441.22 2486.73 854.652 899.193 2297.03
internal_weight=0 18788 80642 18510 3415 278 203 75 40 3393 45933 15095 1230 146 44172 1761 34709 178 115 1082 208 97 26779 43090 42071 321 151 3368 3294 219
internal_count=99430 18788 80642 18510 3415 278 203 75 40 3393 45933 15095 1230 146 44172 1761 34709 178 115 1082 208 97 26779 43090 42071 321 151 3368 3294 219
is_linear=0
shrinkage=0.1


Tree=26
num_leaves=31
num_cat=0
split_feature=34 34 7 34 5 8 8 1 22 20 8 13 4 5 5 27 11 28 25 36 36 11 8 29 15 29 20 29 11 16
split_gain=4.17978e+11 1.42573e+11 1.38769e+11 5.89668e+10 7.34557e+10 5.2042e+10 5.01825e+10 5.08706e+10 5.30666e+10 5.0054e+10 4.51001e+10 4.19804e+10 4.18235e+10 4.16029e+10 3.76369e+10 3.25422e+10 4.08262e+10 3.2066e+10 3.20349e+10 6.33273e+10 3.56612e+10 3.01592e+10 4.15203e+10 3.00272e+10 2.98165e+10 2.99937e+10 3.37947e+10 2.8643e+10 2.7832e+10 5.70374e+10
threshold=91686.81318681319 48697.802197802208 281500.00000000006 158895.60439560443 392000.00000000006 344500.00000000006 505500.00000000006 101500.00000000001 171500.00000000003 805000.00000000012 32500.000000000004 655500.00000000012 468500.00000000006 336500.00000000006 1.0000000180025095e-35 151500.00000000003 148500.00000000003 376000.00000000006 88500.000000000015 179642.85714285719 67357.142857142884 159500.00000000003 29500.000000000004 67500.000000000015 60500.000000000007 146500.00000000003 65500.000000000007 160500.00000000003 279500.00000000006 238500.00000000003
decision_type=2 2 10 2 10 10 8 2 8 8 10 10 10 10 8 8 10 10 10 10 8 10 10 8 8 10 10 8 10 10
left_child=1 10 3 5 15 13 7 -4 -9 -8 -1 -11 17 18 -3 16 -5 -10 20 23 -2 24 -23 -20 25 -16 -27 -17 -29 -30
right_child=2 14 6 4 -6 -7 9 8 12 11 -12 -13 -14 -15 21 27 -18 -19 19 -21 -22 22 -24 -25 -26 26 -28 28 29 -31
leaf_value=-278.27346093009345 4375.5885546874997 595.04362044855668 6205.1628908793136 5397.1089605543348 6677.9802824600883 5387.7839828491215 7530.9251105057574 -2775.5925509982644 2064.2281728993289 5747.7953014555433 -85.30292281580158 -503.01957397460939 -1809.1251937202787 -3590.5163583608773 -76.763712293498202 -601.56178127381861 1334.0471697457231 6394.924776785715 -918.98591155626298 -3529.6660183993258 588.38629081171655 -4239.7613017314188 -458.58581533926508 327.15700594914222 120.1015991734412 58.353865234375 5573.3576855468755 1074.9167228681388 -5416.4076037597661 1885.4801120923912
leaf_weight=26260 25 1307 24 36 23 21 38 27 92 21 22479 22 23 26 12861 123 79 21 201 44 4548 37 135 5091 24472 25 20 1306 20 23
leaf_count=26260 25 1307 24 36 23 21 38 27 92 21 22479 22 23 26 12861 123 79 21 201 44 4548 37 135 5091 24472 25 20 1306 20 23
internal_value=0 -75.3602 557.821 505.694 1067.18 414.895 2807.42 1906.82 1273.94 4886.57 -189.273 2549.7 2077.89 404.384 67.5229 985.868 2605.96 2869.05 414.866 248.414 609.09 49.1615 -1271.98 279.826 55.2409 -67.7462 2509.47 859.298 992.498 -1510.75
internal_weight=0 87596 11834 11566 1610 9956 268 187 163 81 48739 43 136 9935 38857 1587 115 113 9909 5336 4573 37550 172 5292 37378 12906 45 1472 1349 43
internal_count=99430 87596 11834 11566 1610 9956 268 187 163 81 48739 43 136 9935 38857 1587 115 113 9909 5336 4573 37550 172 5292 37378 12906 45 1472 1349 43
is_linear=0
shrinkage=0.1


Tree=27
num_leaves=31
num_cat=0
split_feature=8 8 16 7 32 32 2 13 13 28 9 19 25 15 9 13 32 11 21 11 36 8 27 23 9 23 19 29 19 28
split_gain=3.15464e+11 1.16273e+11 7.48802e+10 7.22946e+10 6.37633e+10 4.79182e+10 6.75827e+10 4.44622e+10 4.03261e+10 3.54142e+10 3.23757e+10 2.82523e+10 2.67903e+10 2.66507e+10 4.10853e+10 2.966e+10 2.63628e+10 2.63385e+10 3.1618e+10 4.47132e+10 2.62209e+10 3.85396e+10 3.46394e+10 2.56846e+10 3.8221e+10 2.82527e+10 2.59598e+10 2.53025e+10 2.51298e+10 2.49411e+10
threshold=78500.000000000015 400000.00000000006 29500.000000000004 157500.00000000003 98500.000000000015 515000.00000000006 105500.00000000001 263500.00000000006 103500.00000000001 220500.00000000003 331500.00000000006 189500.00000000003 32500.000000000004 60500.000000000007 152500.00000000003 93500.000000000015 174500.00000000003 189500.00000000003 149500.00000000003 19500.000000000004 1.0000000180025095e-35 4500.0000000000009 60500.000000000007 93500.000000000015 183500.00000000003 195500.00000000003 165500.00000000003 90500.000000000015 inf 73500.000000000015
decision_type=10 10 8 10 8 10 10 10 10 10 10 8 10 10 10 8 10 10 10 10 10 10 10 10 10 10 10 10 8 10
left_child=2 3 8 10 -3 6 28 9 20 13 12 -10 23 14 17 -16 -15 18 -4 -20 -1 22 -22 -2 25 26 -25 -14 -6 -23
right_child=1 4 7 -5 5 -7 -8 -9 11 -11 -12 -13 27 16 15 -17 -18 -19 19 -21 21 29 -24 24 -26 -27 -28 -29 -30 -31
leaf_value=1034.6371917335853 390.31458716841996 -2066.5877604166667 -67.137363790812515 909.24275119087906 4616.8285689504528 711.53541463216152 9595.6175359090175 4679.7568066406257 -2134.4584173957951 3015.905215935958 -3741.1793334960939 1136.7588449785787 32.641012133960338 100.69241118125854 -71.216338530040929 -3560.5846191406254 -2272.0648389451048 -2733.1929285410292 5786.7772816051147 376.893766784668 -505.91858149723942 -218.58851663722783 -1744.2512787709595 946.67295469351575 4931.7010000000009 -1696.4091205797697 3984.3713137817381 344.01211449548498 570.18887648809527 908.59992522809978
leaf_weight=157 5124 21 50732 2057 57 36 24 20 178 38 20 31 5174 12638 42 58 47 37 22 50 2108 14475 253 452 25 38 30 5266 21 199
leaf_count=157 5124 21 50732 2057 57 36 24 20 178 38 20 31 5174 12638 42 58 47 37 22 50 2108 14475 253 452 25 38 30 5266 21 199
internal_value=0 374.479 -84.7236 350.939 3066.95 3848.14 4955.18 -34.4911 -268.564 -35.972 279.736 -1649.25 284.728 -37.7947 -70.0907 -2095.05 91.901 -66.1078 -64.1654 2029.91 -251.779 -263.635 -638.616 459.733 1112.4 928.776 1135.74 189.699 3527.35 -203.302
internal_weight=0 18345 81085 18186 159 138 102 63684 17401 63664 16129 209 16109 63626 50941 100 12685 50841 50804 72 17192 17035 2361 5669 545 520 482 10440 78 14674
internal_count=99430 18345 81085 18186 159 138 102 63684 17401 63664 16129 209 16109 63626 50941 100 12685 50841 50804 72 17192 17035 2361 5669 545 520 482 10440 78 14674
is_linear=0
shrinkage=0.1


Tree=28
num_leaves=31
num_cat=0
split_feature=34 34 3 34 8 2 34 19 36 11 26 29 28 13 2 25 0 27 28 35 24 2 2 16 3 2 23 8 29 28
split_gain=2.89486e+11 1.21923e+11 6.43846e+10 6.33183e+10 5.42125e+10 5.2247e+10 6.69242e+10 4.51719e+10 4.14063e+10 4.13209e+10 4.0152e+10 5.61036e+10 3.64079e+10 5.82854e+10 3.35113e+10 4.04222e+10 3.40547e+10 3.17213e+10 3.09861e+10 2.99084e+10 2.91996e+10 2.99063e+10 3.70198e+10 2.85657e+10 2.81787e+10 2.72788e+10 2.67698e+10 2.65239e+10 2.59258e+10 2.56946e+10
threshold=67423.076923076951 187060.43956043958 240500.00000000003 30857.142857142859 120500.00000000001 -56499.999999999993 252285.71428571432 561500.00000000012 77642.857142857145 197500.00000000003 115500.00000000001 233500.00000000003 220500.00000000003 81500.000000000015 23500.000000000004 24500.000000000004 406799.50000000006 31500.000000000004 69500.000000000015 70183.333333333358 512500.00000000006 134500.00000000003 72500.000000000015 87500.000000000015 -65499.999999999993 -127499.99999999999 88500.000000000015 7500.0000000000009 146500.00000000003 157500.00000000003
decision_type=2 2 8 2 10 10 2 10 10 10 10 10 10 10 10 8 2 10 10 10 10 10 10 10 10 8 10 10 8 10
left_child=3 4 7 27 9 -4 -7 20 17 12 11 14 19 -14 24 -16 -17 18 -5 25 21 22 28 -10 -6 -2 -11 -1 -3 -26
right_child=1 2 5 8 10 6 -8 -9 23 26 -12 -13 13 -15 15 16 -18 -19 -20 -21 -22 -23 -24 -25 29 -27 -28 -29 -30 -31
leaf_value=-430.43671786801582 -1382.1472003740134 -2484.8885307705405 1446.1408179146904 36.749510858155709 -643.24385100616814 2509.7166386265908 9254.3421282087056 4726.1427956321022 -825.43488335627308 -2537.1352889176255 231.27241442032138 5727.3804443359377 7057.1939337158201 417.3370042067308 4944.7737517326113 4920.1262451171879 1069.6718173702632 -106.34820828547495 955.4783230447897 40.012278345941411 -2823.2262878417969 4039.4386187553409 -2584.9690664357154 -3690.9712127685548 623.83165889096961 302.09650948016252 -124.62441357028099 -178.82585880940553 1169.1776414591986 2857.9112268411891
leaf_weight=5653 97 20 56 23237 174 31 28 33 267 91 2198 23 20 39 31 24 535 27811 373 8609 20 32 29 40 1796 11166 93 16185 666 53
leaf_count=5653 97 20 56 23237 174 31 28 33 267 91 2198 23 20 39 31 24 535 27811 373 8609 20 32 29 40 1796 11166 93 16185 666 53
internal_value=0 287.77 1421.51 -101.173 246.191 3633.97 5710.56 1103.46 -40.8935 173.928 546.888 810.061 187.699 2668.14 766.778 1429.91 1234.99 -33.9804 51.2639 180.334 947.598 1048.56 914.7 -1198.79 573.379 287.591 -1317.77 -243.958 1062.65 687.87
internal_weight=0 25864 915 73566 24949 115 59 800 51728 20115 4834 2636 19931 59 2613 590 559 51421 23610 19872 767 747 715 307 2023 11263 184 21838 686 1849
internal_count=99430 25864 915 73566 24949 115 59 800 51728 20115 4834 2636 19931 59 2613 590 559 51421 23610 19872 767 747 715 307 2023 11263 184 21838 686 1849
is_linear=0
shrinkage=0.1


Tree=29
num_leaves=31
num_cat=0
split_feature=34 8 20 24 8 17 17 12 1 8 1 15 26 24 34 35 13 4 18 20 14 15 24 0 26 21 16 5 10 36
split_gain=2.40556e+11 9.78499e+10 8.18423e+10 6.10162e+10 4.7427e+10 5.38385e+10 4.04137e+10 5.66402e+10 5.26856e+10 3.50332e+10 3.45225e+10 4.10779e+10 5.76659e+10 3.24571e+10 3.1483e+10 3.15619e+10 3.09596e+10 1.46175e+11 3.01467e+10 4.52686e+10 3.17009e+10 3.00872e+10 2.95273e+10 2.91418e+10 2.86906e+10 2.4994e+10 2.47366e+10 2.45814e+10 4.49825e+10 3.49324e+10
threshold=95675.824175824164 48500.000000000007 467000.00000000006 379000.00000000006 172500.00000000003 447000.00000000006 85500.000000000015 197500.00000000003 480500.00000000006 505500.00000000006 240500.00000000003 243500.00000000003 117500.00000000001 311500.00000000006 8675.8241758241784 87416.666666666672 44500.000000000007 51500.000000000007 34500.000000000007 132500.00000000003 166500.00000000003 105500.00000000001 53500.000000000007 677737.50000000012 151500.00000000003 90500.000000000015 54500.000000000007 1.0000000180025095e-35 166500.00000000003 81071.428571428594
decision_type=2 10 10 10 8 10 8 10 2 10 2 10 8 10 2 10 8 10 10 10 10 10 10 2 10 8 10 8 10 10
left_child=1 14 4 -4 10 6 7 23 13 -5 11 16 -13 -8 -1 27 17 -2 19 24 -20 22 -21 -6 -3 -12 -17 28 29 -16
right_child=2 18 3 9 5 -7 8 -9 -10 -11 25 12 -14 -15 15 26 -18 -19 20 21 -22 -23 -24 -25 -26 -27 -28 -29 -30 -31
leaf_value=-514.65331032581378 9232.0964865944607 195.50046707811941 7413.7305935329859 -913.2616773332868 -197.60929726048519 -3087.7145103236608 688.90910732211762 7524.2097970145087 4951.5283496093753 3748.4017147666527 -4513.9417457217269 7330.7423657226573 696.87657679507618 3756.9385051618301 144.20490766340649 -4990.2207941228698 279.93147763399486 586.38053315986292 11.329866841205995 6934.1586077880856 1760.3552896683032 -213.94441189236113 2165.0882085026924 4312.2964031717047 3987.1738182067875 -712.32197119265186 -1012.1885871710601 -143.06248838744176 4873.0985067749025 -3767.352347995924
leaf_weight=2195 22 9118 27 28 38 35 2329 21 30 38 21 20 38 35 3111 22 7391 176 29018 20 104 27 37 23 20 98 54 45291 20 23
leaf_count=2195 22 9118 27 28 38 35 2329 21 30 38 21 20 38 35 3111 22 7391 176 29018 20 104 27 37 23 20 98 54 45291 20 23
internal_value=0 -53.0759 455.828 3409.02 429.104 806.898 861.951 3044.9 787.18 1770.73 306.951 333.252 2984.42 734.333 -144.217 -127.459 312.99 1547.02 67.4728 225.041 17.576 2535.89 3838.45 1502.85 203.799 -1383.2 -2163.72 -124.265 145.667 115.499
internal_weight=0 89060 10370 93 10277 2511 2476 82 2394 66 7766 7647 58 2364 50716 48521 7589 198 38344 9222 29122 84 57 61 9138 119 76 48445 3154 3134
internal_count=99430 89060 10370 93 10277 2511 2476 82 2394 66 7766 7647 58 2364 50716 48521 7589 198 38344 9222 29122 84 57 61 9138 119 76 48445 3154 3134
is_linear=0
shrinkage=0.1


Tree=30
num_leaves=31
num_cat=0
split_feature=8 22 1 10 28 30 8 22 3 19 17 17 23 24 37 8 10 10 22 25 14 36 37 28 17 22 26 33 15 24
split_gain=1.86721e+11 8.45736e+10 7.1096e+10 3.93989e+10 3.67652e+10 3.98833e+10 3.61561e+10 2.98124e+10 3.34796e+10 2.86091e+10 5.73613e+10 4.02634e+10 2.9547e+10 2.84755e+10 2.7353e+10 3.23397e+10 3.67523e+10 3.12632e+10 2.73012e+10 2.71717e+10 3.85728e+10 4.28892e+10 2.55699e+10 2.33513e+10 2.75469e+10 2.95779e+10 2.79245e+10 2.29268e+10 2.26939e+10 3.27661e+10
threshold=65500.000000000007 214500.00000000003 497500.00000000006 774000.00000000012 24500.000000000004 134500.00000000003 112500.00000000001 530500.00000000012 61500.000000000007 221500.00000000003 123500.00000000001 169500.00000000003 135500.00000000003 156500.00000000003 10166.66666666667 400000.00000000006 88500.000000000015 347000.00000000006 45500.000000000007 16500.000000000004 96500.000000000015 70785.714285714304 152166.66666666672 289500.00000000006 174500.00000000003 173500.00000000003 168500.00000000003 175500.00000000003 206500.00000000003 173500.00000000003
decision_type=10 10 2 10 8 10 10 10 10 10 10 10 8 10 10 10 10 10 8 8 10 10 10 10 10 10 10 10 10 8
left_child=2 6 4 7 5 -1 13 8 28 11 -11 -6 18 19 -8 17 -17 23 -13 20 -2 -22 -10 24 25 -16 27 -27 -3 -30
right_child=1 3 -4 -5 9 -7 14 -9 22 10 -12 12 -14 -15 15 16 -18 -19 -20 -21 21 -23 -24 -25 -26 26 -28 -29 29 -31
leaf_value=-246.49005214926885 439.76314067070803 96.447310903474886 5474.2163627292803 5324.9643281250001 -55.373969511519306 -2899.0224024722452 -3123.4400168678981 -1557.9029645647322 5130.6679552580181 -1066.7762730189731 6416.2403240203857 -2869.1852453231813 -3876.6637847071106 -1001.9141747058522 414.5785977185995 5861.8328570822014 744.38997328016501 -3141.8715903320317 988.36791012786171 122.45966487829708 4997.2026007718823 814.06220480935622 1855.8826788902284 3812.872370529175 -129.24613758964151 1734.1855019636216 354.42923441847711 4840.3831298828127 5242.2549332328472 1270.1982129248504
leaf_weight=10264 446 154 23 25 61444 57 22 35 38 21 20 32 46 220 5413 23 36 25 43 19408 43 57 64 20 883 157 146 28 23 214
leaf_count=10264 446 154 23 25 61444 57 22 35 38 21 20 32 46 220 5413 23 36 25 43 19408 43 57 64 20 883 157 146 28 23 214
internal_value=0 221.74 -84.6898 1445.91 -86.4673 -261.139 196.6 1262.24 1462.45 -57.2041 2583.48 -58.9627 -1881.33 129.557 396.883 408.389 2739.33 387.776 -657.521 142.032 837.758 2612.81 3075.9 401.052 390.755 470.693 1388.35 2204.31 1041.55 1655.67
internal_weight=0 27480 71950 553 71927 10321 26927 528 493 61606 41 61565 121 20174 6753 6731 59 6672 75 19954 546 100 102 6647 6627 5744 331 185 391 237
internal_count=99430 27480 71950 553 71927 10321 26927 528 493 61606 41 61565 121 20174 6753 6731 59 6672 75 19954 546 100 102 6647 6627 5744 331 185 391 237
is_linear=0
shrinkage=0.1


Tree=31
num_leaves=31
num_cat=0
split_feature=34 34 1 22 13 6 35 34 34 17 35 17 26 26 36 37 25 2 31 35 1 8 2 22 6 4 4 36 1 6
split_gain=1.75104e+11 8.02333e+10 5.87959e+10 4.96516e+10 3.96458e+10 6.00032e+10 3.86292e+10 4.00515e+10 3.90207e+10 3.52485e+10 3.5027e+10 3.2609e+10 3.31346e+10 3.20909e+10 5.98811e+10 3.20805e+10 2.83348e+10 3.95045e+10 4.86955e+10 2.74909e+10 2.66444e+10 2.46983e+10 2.41868e+10 2.3275e+10 3.77424e+10 2.32562e+10 2.56917e+10 2.3095e+10 2.24877e+10 3.21271e+10
threshold=62945.054945054952 145791.20879120883 762500.00000000012 25500.000000000004 282500.00000000006 207500.00000000003 64516.666666666679 36390.109890109896 56681.318681318691 143500.00000000003 20516.666666666668 327500.00000000006 135500.00000000003 63500.000000000007 179642.85714285719 98166.666666666672 1.0000000180025095e-35 24500.000000000004 110500.00000000001 42516.666666666679 65500.000000000007 10500.000000000002 -70499.999999999985 69500.000000000015 150500.00000000003 452500.00000000006 316500.00000000006 135785.71428571432 7500.0000000000009 143500.00000000003
decision_type=2 2 2 8 10 10 10 2 2 10 8 10 8 10 10 10 8 10 8 10 2 10 10 10 10 10 10 10 2 8
left_child=6 13 3 9 11 -6 7 19 -8 -3 -9 12 27 16 23 20 17 22 -19 21 28 -1 -2 24 -15 26 -14 -5 29 -12
right_child=1 2 -4 4 5 -7 8 10 -10 -11 15 -13 25 14 -16 -17 -18 18 -20 -21 -22 -23 -24 -25 -26 -27 -28 -29 -30 -31
leaf_value=-306.90599644364801 3904.443136742002 121.46294817243304 4729.4854003906248 3635.5138257061999 7352.9321313476576 1514.82764075662 -2719.2779449311815 1952.7568865966798 -520.06844179909729 -4991.8382047213045 263.86399365831903 -2453.3274758731618 555.21633319192824 -131.70314577216774 -4419.1176538085938 -1998.1616693822352 239.1848859650807 1165.9673606589988 7676.198981933594 -1845.2682403564454 -248.77170250117211 -104.54313916446414 308.34078655577542 122.10650437502055 -2463.0759995151575 3862.3891090029765 -2668.7540073242189 1251.1730050947608 -6.0722942342099442 2101.4174758537142
leaf_weight=8754 21 28 36 54 20 147 101 90 401 26 1416 34 2190 3159 30 82 13295 27 20 98 4452 19391 171 11083 71 21 25 164 33921 102
leaf_count=8754 21 28 36 54 20 147 101 90 401 26 1416 34 2190 3159 30 82 13295 27 20 98 4452 19391 171 11083 71 21 25 164 33921 102
internal_value=0 198.926 714.763 661.411 722.467 2214 -88.5292 -82.1059 -962.539 -2340.5 -17.8128 622.352 664.965 148.133 43.9102 -22.2496 258.585 1337.76 3936.28 -173.306 -18.1879 -167.484 701.664 53.2647 -182.95 550.23 518.828 1841.79 10.779 387.336
internal_weight=0 30622 2745 2709 2655 167 68808 68306 502 54 40063 2488 2454 27877 14343 39973 13534 239 47 28243 39891 28145 192 14313 3230 2236 2215 218 35439 1518
internal_count=99430 30622 2745 2709 2655 167 68808 68306 502 54 40063 2488 2454 27877 14343 39973 13534 239 47 28243 39891 28145 192 14313 3230 2236 2215 218 35439 1518
is_linear=0
shrinkage=0.1


Tree=32
num_leaves=31
num_cat=0
split_feature=7 20 25 29 20 15 20 1 15 28 9 27 11 18 9 22 27 2 35 18 19 7 7 9 12 36 2 27 9 29
split_gain=1.05155e+11 6.22513e+10 7.39035e+10 5.27648e+10 8.24159e+10 5.39092e+10 4.89677e+10 4.59206e+10 3.12555e+10 3.11304e+10 2.86796e+10 2.86182e+10 2.8507e+10 2.7282e+10 2.48294e+10 2.44281e+10 2.20455e+10 4.37327e+10 2.84383e+10 2.54542e+10 2.39437e+10 2.54254e+10 2.36006e+10 2.26704e+10 2.12687e+10 2.07674e+10 1.96383e+10 1.93331e+10 2.43485e+10 1.70676e+10
threshold=77500.000000000015 467000.00000000006 480500.00000000006 202500.00000000003 68500.000000000015 97500.000000000015 805000.00000000012 497500.00000000006 115500.00000000001 42500.000000000007 508000.00000000006 198500.00000000003 162500.00000000003 255500.00000000003 263500.00000000006 258500.00000000003 29500.000000000004 118500.00000000001 111216.66666666667 91500.000000000015 135500.00000000003 201500.00000000003 248500.00000000003 68500.000000000015 162500.00000000003 92785.714285714304 -49499.999999999993 140500.00000000003 240500.00000000003 140500.00000000003
decision_type=10 10 10 10 10 10 10 2 10 8 10 10 10 10 10 10 8 10 10 10 8 10 10 10 10 10 10 10 10 10
left_child=3 8 -3 7 -5 -6 -4 9 13 12 15 14 24 16 29 -10 17 18 -2 22 -21 -22 23 25 -1 -18 -17 -28 -29 -11
right_child=1 2 6 4 5 -7 -8 -9 10 11 -12 -13 -14 -15 -16 26 19 -19 -20 20 21 -23 -24 -25 -26 -27 27 28 -30 -31
leaf_value=-146.2830446084931 388.77513036532486 6697.1517417907717 2876.9443590323135 -2055.8053408415421 9157.4086367797845 2058.578273607337 -3294.4415917968749 4515.3613641912289 385.20586465848641 -18.457692494591488 -3279.2931361607148 -3797.5267065429689 -2822.0323608398439 -2591.4511817725929 2770.6279615402223 -591.1597435735888 9.4905178365868519 5050.7986519191581 3858.8378558349609 -20.488606616556318 -631.34927944738718 -4197.0387858072918 1643.7983447169399 290.87809668104296 -2726.2262502670292 -1426.8485388315642 4137.5454537056594 -731.45565148555875 2716.344707460757 1042.589216663963
leaf_weight=22063 427 32 36 23 20 23 20 22 4963 57757 21 20 40 37 32 31 3137 23 25 3636 419 21 111 6079 32 104 37 33 54 152
leaf_count=22063 427 32 36 23 20 23 20 22 4963 57757 21 20 40 37 32 31 3137 23 25 3636 419 21 111 6079 32 104 37 33 54 152
internal_value=0 209.908 2863.52 -50.3828 2775.94 5360.36 672.878 -52.711 197.719 -53.9658 408.682 -15.4393 -154.848 120.385 -14.1338 423.815 127.562 797.15 580.703 104.014 -104.801 -801.53 194.262 176.999 -150.02 -36.6 1660.05 2222.85 1408.56 -15.6726
internal_weight=0 19246 88 80184 66 43 56 80118 19158 80096 5139 57961 22135 14019 57941 5118 13982 475 452 13507 4076 440 9431 9320 22095 3241 155 124 87 57909
internal_count=99430 19246 88 80184 66 43 56 80118 19158 80096 5139 57961 22135 14019 57941 5118 13982 475 452 13507 4076 440 9431 9320 22095 3241 155 124 87 57909
is_linear=0
shrinkage=0.1


end of trees

feature_importances:
mean_income_all=211
income_5_day_before=88
mean_income_last_3_days=55
income_12_day_before=50
mean_income_last_30_days=48
money_in=46
income_4_day_before=30
income_19_day_before=30
mean_income_last_7_days=30
income_26_day_before=25
income_1_day_before=22
income_17_day_before=20
income_24_day_before=20
income_8_day_before=19
income_2_day_before=18
income_15_day_before=18
TID=17
yesterday_income_growth=17
income_22_day_before=17
income_10_day_before=15
income_18_day_before=15
income_6_day_before=14
income_11_day_before=14
income_25_day_before=14
income_3_day_before=13
income_14_day_before=13
income_23_day_before=13
income_30_day_before=13
income_21_day_before=12
yesterday_growth_of_income_growth=11
income_7_day_before=11
income_16_day_before=11
income_20_day_before=8
income_9_day_before=7
income_13_day_before=7
income_27_day_before=7
income_29_day_before=6
income_28_day_before=5

parameters:
[boosting: gbdt]
[objective: regression]
[metric: l2]
[tree_learner: serial]
[device_type: cpu]
[data: ]
[valid: ]
[num_iterations: 33]
[learning_rate: 0.1]
[num_leaves: 31]
[num_threads: -1]
[deterministic: 0]
[force_col_wise: 0]
[force_row_wise: 0]
[histogram_pool_size: -1]
[max_depth: -1]
[min_data_in_leaf: 20]
[min_sum_hessian_in_leaf: 0.001]
[bagging_fraction: 0.7]
[pos_bagging_fraction: 1]
[neg_bagging_fraction: 1]
[bagging_freq: 0]
[bagging_seed: 3014]
[feature_fraction: 0.7]
[feature_fraction_bynode: 1]
[feature_fraction_seed: 29554]
[extra_trees: 0]
[extra_seed: 19515]
[early_stopping_round: 0]
[first_metric_only: 0]
[max_delta_step: 0]
[lambda_l1: 0]
[lambda_l2: 0]
[linear_lambda: 0]
[min_gain_to_split: 0]
[drop_rate: 0.1]
[max_drop: 50]
[skip_drop: 0.5]
[xgboost_dart_mode: 0]
[uniform_drop: 0]
[drop_seed: 12050]
[top_rate: 0.2]
[other_rate: 0.1]
[min_data_per_group: 100]
[max_cat_threshold: 32]
[cat_l2: 10]
[cat_smooth: 10]
[max_cat_to_onehot: 4]
[top_k: 20]
[monotone_constraints: ]
[monotone_constraints_method: basic]
[monotone_penalty: 0]
[feature_contri: ]
[forcedsplits_filename: ]
[refit_decay_rate: 0.9]
[cegb_tradeoff: 1]
[cegb_penalty_split: 0]
[cegb_penalty_feature_lazy: ]
[cegb_penalty_feature_coupled: ]
[path_smooth: 0]
[interaction_constraints: ]
[verbosity: -1]
[saved_feature_importance_type: 0]
[linear_tree: 0]
[max_bin: 255]
[max_bin_by_feature: ]
[min_data_in_bin: 3]
[bin_construct_sample_cnt: 200000]
[data_random_seed: 126]
[is_enable_sparse: 1]
[enable_bundle: 1]
[use_missing: 1]
[zero_as_missing: 0]
[feature_pre_filter: 1]
[pre_partition: 0]
[two_round: 0]
[header: 0]
[label_column: ]
[weight_column: ]
[group_column: ]
[ignore_column: ]
[categorical_feature: ]
[forcedbins_filename: ]
[precise_float_parser: 0]
[objective_seed: 25204]
[num_class: 1]
[is_unbalance: 0]
[scale_pos_weight: 1]
[sigmoid: 1]
[boost_from_average: 1]
[reg_sqrt: 0]
[alpha: 0.9]
[fair_c: 1]
[poisson_max_delta_step: 0.7]
[tweedie_variance_power: 1.5]
[lambdarank_truncation_level: 30]
[lambdarank_norm: 1]
[label_gain: ]
[eval_at: ]
[multi_error_top_k: 1]
[auc_mu_weights: ]
[num_machines: 1]
[local_listen_port: 12400]
[time_out: 120]
[machine_list_filename: ]
[machines: ]
[gpu_platform_id: -1]
[gpu_device_id: -1]
[gpu_use_dp: 0]
[num_gpu: 1]

end of parameters

pandas_categorical:[]
