tree
version=v3
num_class=1
num_tree_per_iteration=1
label_index=0
max_feature_idx=37
objective=regression
feature_names=TID money_in yesterday_income_growth yesterday_growth_of_income_growth income_1_day_before income_2_day_before income_3_day_before income_4_day_before income_5_day_before income_6_day_before income_7_day_before income_8_day_before income_9_day_before income_10_day_before income_11_day_before income_12_day_before income_13_day_before income_14_day_before income_15_day_before income_16_day_before income_17_day_before income_18_day_before income_19_day_before income_20_day_before income_21_day_before income_22_day_before income_23_day_before income_24_day_before income_25_day_before income_26_day_before income_27_day_before income_28_day_before income_29_day_before income_30_day_before mean_income_all mean_income_last_30_days mean_income_last_7_days mean_income_last_3_days
feature_infos=[406136:699664] [0:2697000] [-2214000:2697000] [-4911000:2697000] [0:2697000] [0:2697000] [0:2697000] [0:2697000] [0:2697000] [0:2697000] [0:2697000] [0:2697000] [0:2697000] [0:2697000] [0:2697000] [0:2697000] [0:2697000] [0:2697000] [0:2697000] [0:2697000] [0:2697000] [0:2697000] [0:2697000] [0:2697000] [0:2697000] [0:2697000] [0:2697000] [0:2697000] [0:2697000] [0:2697000] [0:2697000] [0:2697000] [0:2697000] [0:2697000] [2274.7252747252742:734461.5384615385] [0:843500] [0:917142.85714285716] [0:1247000]
tree_sizes=2885 2882 2863 2858 2861 2859 2889 2860 2857 2857 2856 2836 2866 2857 2846 2842 2843 2852 2873 2849 2858 2871 2836 2828 2866 2835 2849 2848 2832 2859 2866 2850

Tree=0
num_leaves=31
num_cat=0
split_feature=37 37 37 37 1 9 37 37 1 37 37 8 37 13 19 4 1 1 1 6 13 1 35 15 1 3 13 23 13 1
split_gain=7.16518e+13 2.90102e+13 2.06762e+13 9.95545e+12 4.70956e+12 3.56027e+12 3.40957e+12 2.01299e+12 1.6541e+12 1.45711e+12 1.36775e+12 1.12191e+12 8.39865e+11 7.42315e+11 6.8903e+11 6.47539e+11 6.22488e+11 5.56309e+11 4.86822e+11 4.36632e+11 4.30145e+11 3.74762e+11 3.12151e+11 2.87369e+11 2.87167e+11 2.76824e+11 2.75108e+11 2.66054e+11 2.34166e+11 2.33322e+11
threshold=88500.000000000015 339833.33333333337 45166.666666666679 141166.66666666672 65500.000000000007 672500.00000000012 26166.666666666668 189166.66666666669 155500.00000000003 55833.333333333336 108833.33333333336 573500.00000000012 73166.666666666672 253500.00000000003 185500.00000000003 163500.00000000003 50500.000000000007 33500.000000000007 35500.000000000007 373000.00000000006 145500.00000000003 259500.00000000003 95350.000000000015 304500.00000000006 144500.00000000003 -147499.99999999997 20500.000000000004 883500.00000000012 121500.00000000001 92500.000000000015
decision_type=10 10 8 10 2 10 10 10 2 10 10 8 8 10 10 8 2 2 2 10 10 2 8 10 2 10 10 8 10 2
left_child=2 3 6 10 9 11 14 20 12 17 -2 19 -6 24 16 -10 26 25 -8 -3 -5 -17 -12 -15 -9 -4 -1 -7 -24 -14
right_child=1 5 4 7 8 27 18 13 15 -11 22 -13 29 23 -16 21 -18 -19 -20 -21 -22 -23 28 -25 -26 -27 -28 -29 -30 -31
leaf_value=52645.67083699262 60637.205398719707 80891.303525933152 53567.71176706659 64964.534287434493 57747.141111616875 121572.99034770514 54426.722762481921 65880.598175090883 62219.888546501563 57326.94011467386 59151.560200741638 117449.18015425275 58900.028048506036 76864.34395583946 71177.750989911234 68130.491252144158 55343.001643053787 56146.467883803773 55353.527497481839 95808.226328104123 67739.169212484747 82472.772723922666 62574.730575151691 88816.226624490853 71714.678002079949 55730.095334682192 53584.897446132767 137309.13770971814 64153.654012106148 60186.664694147592
leaf_weight=11784 5825 26 1359 1002 7939 21 10252 97 331 12745 198 21 5613 103 21 106 1110 15088 12674 80 1263 22 2291 25 648 1049 4241 22 1592 1882
leaf_count=11784 5825 26 1359 1002 7939 21 10252 97 331 12745 198 21 5613 103 21 106 1110 15088 12674 80 1263 22 2291 25 648 1049 4241 22 1592 1882
internal_value=56853.6 63710.5 55802.6 63175.6 57246.1 104754 54141.2 68084.1 58639.8 56513.6 61620.7 96332.8 58463.9 72163.8 53075.1 64555.6 53052.9 55921.2 54939.1 92149.4 66511.7 70595.6 63024.6 79198.7 70955.1 54509.7 52894.2 129624 63222.1 59223.1
internal_weight=0 13214 86216 13044 46134 170 40082 3138 15893 30241 9906 127 15434 873 17156 459 17135 17496 22926 106 2265 128 4081 128 745 2408 16025 43 3883 7495
internal_count=99430 13214 86216 13044 46134 170 40082 3138 15893 30241 9906 127 15434 873 17156 459 17135 17496 22926 106 2265 128 4081 128 745 2408 16025 43 3883 7495
is_linear=0
shrinkage=1


Tree=1
num_leaves=31
num_cat=0
split_feature=37 37 37 37 1 7 7 37 1 7 7 17 37 7 4 7 37 1 37 13 1 1 6 37 37 1 7 6 1 7
split_gain=5.80994e+13 2.37466e+13 1.62048e+13 8.58432e+12 3.97578e+12 3.1986e+12 2.47287e+12 1.66894e+12 1.48129e+12 1.41892e+12 9.78172e+11 8.66585e+11 8.35073e+11 7.22693e+11 6.85864e+11 5.89781e+11 4.78759e+11 4.34519e+11 4.20065e+11 4.14417e+11 3.75262e+11 3.74899e+11 3.7385e+11 3.59256e+11 3.22577e+11 3.11406e+11 2.82803e+11 2.59053e+11 2.28818e+11 1.99255e+11
threshold=86500.000000000015 339833.33333333337 43166.666666666679 141166.66666666672 60500.000000000007 546500.00000000012 27500.000000000004 205833.33333333334 128500.00000000001 103500.00000000001 50500.000000000007 179500.00000000003 69166.666666666672 355500.00000000006 163500.00000000003 150500.00000000003 19833.333333333339 31500.000000000004 116166.66666666667 306000.00000000006 259500.00000000003 90500.000000000015 655500.00000000012 59833.333333333336 32833.333333333343 67500.000000000015 89500.000000000015 191500.00000000003 77500.000000000015 131500.00000000003
decision_type=10 10 8 10 2 8 8 10 2 10 10 10 8 10 8 10 10 2 10 10 2 2 10 10 10 2 8 10 2 10
left_child=2 3 6 9 10 13 11 15 12 25 17 16 -6 -3 -10 28 -1 -4 -11 26 -16 24 -7 -12 -8 -2 -9 -17 -5 -23
right_child=1 5 4 7 8 22 21 19 14 18 23 -13 -14 -15 20 27 -18 -19 -20 -21 -22 29 -24 -25 -26 -27 -28 -29 -30 -31
leaf_value=-3868.358784477367 1290.4847253809023 21358.314158121746 -2275.4104531443172 2705.1705834369272 458.43140513442069 50925.572842261907 -2379.9520059624592 7782.8462295809659 3891.5977884122872 4606.5165453098116 -287.68673749144108 17380.362587890628 1770.101319107114 38632.839812077706 9133.1310598432665 9599.790273906443 -2794.1508819226783 -846.47340009358891 6494.2463947184697 26116.481865530306 23057.268572443183 86.01567463404696 67474.96666666666 822.4066615599221 -1533.0618051810404 3415.5406024410727 15394.342998001874 12614.04146238312 7767.5659025032692 6497.1993322984235
leaf_weight=10584 796 36 2553 98 9728 21 7381 55 663 2652 8382 20 9687 74 161 1133 6824 12785 2122 33 22 568 39 4470 11513 5158 434 381 1004 53
leaf_count=10584 796 36 2553 98 9728 21 7381 55 663 2652 8382 20 9687 74 161 1133 6824 12785 2122 33 22 568 39 4470 11513 5158 434 381 1004 53
internal_value=0 5962.37 -980.02 5506.93 222.862 43109.9 -2557.61 10107.5 1291.37 4161.25 -545.105 -3423.36 1112.88 32979.4 5387.5 9077.31 -3447.27 -1084.32 5445.6 15270.2 10807.1 -1784.44 61682.7 98.4102 -1863.9 3131.44 14538.2 10358.3 7317.37 633.186
internal_weight=0 14036 85394 13866 48451 170 36943 3138 20261 10728 28190 17428 19415 110 846 2616 17408 15338 4774 522 183 19515 60 12852 18894 5954 489 1514 1102 621
internal_count=99430 14036 85394 13866 48451 170 36943 3138 20261 10728 28190 17428 19415 110 846 2616 17408 15338 4774 522 183 19515 60 12852 18894 5954 489 1514 1102 621
is_linear=0
shrinkage=0.1


Tree=2
num_leaves=31
num_cat=0
split_feature=34 34 34 34 6 34 34 12 34 6 34 12 6 34 34 13 1 19 34 6 34 34 7 7 34 9 7 1 13 32
split_gain=5.4488e+13 1.98849e+13 1.60233e+13 5.62869e+12 4.78527e+12 3.31624e+12 2.48894e+12 1.31585e+12 1.1994e+12 7.67892e+11 5.17563e+11 4.20002e+11 3.93036e+11 3.87266e+11 3.33337e+11 2.73445e+11 2.73399e+11 2.57711e+11 2.32599e+11 1.98427e+11 1.78494e+11 1.57083e+11 1.35887e+11 1.34901e+11 1.34031e+11 1.06287e+11 1.05384e+11 1.08086e+11 1.04002e+11 1.029e+11
threshold=87912.087912087925 252285.71428571432 43005.494505494513 141604.39560439563 582500.00000000012 61302.197802197807 24637.362637362643 405000.00000000006 113109.89010989011 190500.00000000003 70543.956043956059 543500.00000000012 313500.00000000006 51142.857142857152 34230.769230769241 1.0000000180025095e-35 672500.00000000012 292500.00000000006 14049.450549450552 131500.00000000003 101494.50549450552 158895.60439560443 81500.000000000015 497500.00000000006 187060.43956043958 59500.000000000007 89500.000000000015 56500.000000000007 173500.00000000003 350000.00000000006
decision_type=2 2 2 2 10 2 2 10 2 10 2 10 8 2 2 8 2 8 2 8 2 2 10 8 2 8 8 2 10 8
left_child=2 3 6 8 7 13 18 12 20 15 -7 -9 17 -4 -8 -5 -6 29 -1 26 -2 25 -12 -14 -11 -17 27 -10 -21 -3
right_child=1 4 5 9 16 10 14 11 19 24 22 -13 23 -15 -16 21 -18 -19 -20 28 -22 -23 -24 -25 -26 -27 -28 -29 -30 -31
leaf_value=-3871.901739718026 3113.637115306889 17353.018370535716 -779.22512140605045 163.97883789062502 48256.122991071432 774.22382658629522 -2224.8907616628358 31491.383880722315 -3726.7781801970109 10581.222574663305 1512.9795634146785 48034.82972470238 22636.928179505816 -38.743194940099549 -1464.6312828311468 13298.686210123698 62613.488628472231 10534.211194957388 -3080.3125644471315 6333.1919337853178 4217.8213972082121 9521.2141004774312 2271.5357137516826 31761.482241586538 13250.525630212887 7534.4549623218991 5304.5240604888286 3697.5495422822191 9162.4566599172304 26080.715838068183
leaf_weight=7076 4392 35 13542 40 21 9577 10370 57 23 335 6183 21 43 14762 12993 33 36 44 7808 1421 2196 864 3821 26 429 1044 1940 133 143 22
leaf_count=7076 4392 35 13542 40 21 9577 10370 57 23 335 6183 21 43 14762 12993 33 36 44 7808 1421 2196 864 3821 26 429 1044 1940 133 143 22
internal_value=0 5957.73 -919.819 5365.26 31196.8 299.151 -2445.96 25191.8 4288.05 9386.85 1299.68 35945.4 20257.8 -393.025 -1802.08 8348.17 57323.9 16283.5 -3456.64 5739.49 3481.7 8516.82 1802.71 26075.2 12080.1 7711.07 5103.45 2602.94 6591.88 20721.6
internal_weight=0 13298 86132 12993 305 47885 38247 248 10248 2745 19581 78 170 28304 23363 1981 57 101 14884 3660 6588 1941 10004 69 764 1077 2096 156 1564 57
internal_count=99430 13298 86132 12993 305 47885 38247 248 10248 2745 19581 78 170 28304 23363 1981 57 101 14884 3660 6588 1941 10004 69 764 1077 2096 156 1564 57
is_linear=0
shrinkage=0.1


Tree=3
num_leaves=31
num_cat=0
split_feature=34 34 34 34 6 34 34 34 12 34 27 34 5 34 6 34 6 18 23 6 34 3 6 3 33 34 6 18 27 37
split_gain=4.41861e+13 1.67932e+13 1.1681e+13 5.65761e+12 3.87607e+12 2.39536e+12 1.63831e+12 1.27568e+12 1.06584e+12 6.93782e+11 3.8091e+11 3.3831e+11 3.22406e+11 3.13819e+11 3.0673e+11 2.19984e+11 2.06433e+11 2.13732e+11 2.0194e+11 1.87845e+11 1.56254e+11 1.41636e+11 1.01308e+11 1.20119e+11 1.12295e+11 9.93034e+10 9.88325e+10 9.6257e+10 8.87957e+10 8.76864e+10
threshold=82285.714285714304 252285.71428571432 40736.263736263747 125153.84615384617 582500.00000000012 58989.010989010996 23291.208791208792 158895.60439560443 405000.00000000006 102758.24175824177 607000.00000000012 68945.054945054959 497500.00000000006 49741.758241758253 199500.00000000003 31346.153846153855 300500.00000000006 385500.00000000006 883500.00000000012 133500.00000000003 13247.252747252749 190500.00000000003 53500.000000000007 205500.00000000003 170500.00000000003 93934.065934065948 158500.00000000003 492500.00000000006 89500.000000000015 36833.333333333336
decision_type=2 2 2 2 10 2 2 2 10 2 8 2 8 2 10 2 10 8 8 8 2 10 10 10 10 2 8 10 10 8
left_child=2 3 6 9 8 13 20 19 12 25 27 -7 16 -4 26 -8 17 -3 -6 22 -1 -17 24 -24 -5 -2 -9 -10 -13 -11
right_child=1 4 5 7 18 11 15 14 10 29 -12 28 -14 -15 -16 21 -18 -19 -20 -21 -22 -23 23 -25 -26 -27 -28 -29 -30 -31
leaf_value=-3531.4197960629494 2319.9731311541941 17120.274780273438 -802.00937659884994 3889.4519460555612 45742.919558189664 568.7203711331166 -2156.1211611177564 7022.1219628906256 31003.685546875 10879.779379882813 42525.786187500002 1297.2697025864863 30158.363632812503 -145.96334395717142 11671.037418118991 -1504.8652672178118 21517.378650568182 7003.8752142137091 57649.04068080357 6773.6675058051369 -2858.4952211456084 6917.2376495361332 5340.1701695785223 13166.190054931641 -3799.9064750339676 3092.1838074784646 9272.7004653188342 22290.651199776788 2355.2573892147261 4240.1937477553547
leaf_weight=6222 4758 64 15555 109 29 11041 8296 265 32 20 25 7655 20 13725 520 12424 55 31 28 1886 7747 20 1012 20 23 2562 740 21 885 3640
leaf_count=6222 4758 64 15555 109 29 11041 8296 265 32 20 25 7655 20 13725 520 12424 55 31 28 1886 7747 20 1012 20 23 2562 740 21 885 3640
internal_value=0 4839.02 -918.355 4383.37 28077.1 78.0918 -2321.08 7337.89 22672.6 3152.32 32350.8 934.285 18232 -494.488 9699.41 -1757.25 16641.8 13819.1 51591.5 6157.14 -3158.23 -1491.33 5158.19 5491.84 2549.64 2590.25 8679.26 27551.4 1406.91 4276.48
internal_weight=0 15860 83570 15555 305 48861 34709 4575 248 10980 78 19581 170 29280 1525 20740 150 95 57 3050 13969 12444 1164 1032 132 7320 1005 53 8540 3660
internal_count=99430 15860 83570 15555 305 48861 34709 4575 248 10980 78 19581 170 29280 1525 20740 150 95 57 3050 13969 12444 1164 1032 132 7320 1005 53 8540 3660
is_linear=0
shrinkage=0.1


Tree=4
num_leaves=31
num_cat=0
split_feature=34 34 34 34 12 34 34 4 23 6 34 34 34 34 34 5 34 0 6 1 6 8 2 6 36 35 9 6 27 34
split_gain=3.58053e+13 1.30417e+13 1.05439e+13 3.73755e+12 3.29015e+12 2.14045e+12 1.67716e+12 1.42123e+12 8.03003e+11 7.17836e+11 6.99906e+11 5.9633e+11 2.98686e+11 2.77932e+11 2.00868e+11 1.87818e+11 1.86487e+11 1.72108e+11 1.40662e+11 1.37207e+11 1.1852e+11 1.29833e+11 1.07057e+11 8.8246e+10 8.52058e+10 8.26678e+10 7.77179e+10 7.73678e+10 7.09008e+10 7.00886e+10
threshold=87912.087912087925 252285.71428571432 43285.71428571429 135483.51648351652 590500.00000000012 61923.076923076929 25796.703296703297 575500.00000000012 883500.00000000012 324500.00000000006 106637.36263736265 177840.65934065936 73714.285714285725 51708.791208791219 34835.16483516484 392000.00000000006 15302.197802197805 676433.00000000012 230500.00000000003 154500.00000000003 153500.00000000003 1.0000000180025095e-35 124500.00000000001 161500.00000000003 55928.571428571435 95350.000000000015 127500.00000000001 119500.00000000001 88500.000000000015 154879.12087912092
decision_type=2 2 2 2 10 2 2 10 8 10 2 2 2 2 2 10 2 2 10 2 8 8 10 8 8 8 10 8 10 2
left_child=2 3 6 10 7 13 16 9 -6 17 -2 20 -7 -4 -8 -11 -1 -3 23 24 21 -5 -23 -13 -12 -26 -16 -27 -14 -22
right_child=1 4 5 11 8 12 14 -9 -10 15 19 18 28 -15 26 -17 -18 -19 -20 -21 29 22 -24 -25 25 27 -28 -29 -30 -31
leaf_value=-3107.8406374749743 2654.7405712800301 15374.13000332447 -597.53392873324981 12315.341490436424 37491.566071428577 766.23774847570269 -1751.5469555753084 44380.91496263587 63021.712286931826 18867.048292267627 -2367.33935546875 6098.3943905409951 1445.2065850319598 21.956489307038211 -1167.1197408206342 27595.803859608208 -2419.3595976959 6883.3691894531257 12272.268650477708 5892.2530254198164 6274.7792407751595 5697.4810664937522 -804.95833928034858 9387.1367451832702 9690.6192708333328 3674.1118321672739 4921.4316545758929 4565.6574833852083 2264.3237975916018 7884.3029926282361
leaf_weight=7930 5490 94 14274 29 28 11102 10370 23 22 39 20 93 6103 14701 12545 67 7808 32 157 506 465 968 26 665 27 1870 21 2030 1278 647
leaf_count=7930 5490 94 14274 29 28 11102 10370 23 22 39 20 93 6103 14701 12545 67 7808 32 157 506 465 968 26 665 27 1870 21 2030 1278 647
internal_value=0 4829.52 -745.634 4349.71 25269.4 253.156 -1971.28 20670.3 48724.8 18319.7 3410.36 7412.01 1094.01 -283.224 -1425.78 24384.3 -2766.27 13217.7 9547.92 4341.94 6496.62 5719.82 5527.4 8983.64 4143.19 4176.35 -1156.94 4138.17 1587.03 7211.26
internal_weight=0 13298 86132 12993 305 47458 38674 255 50 232 9943 3050 18483 28975 22936 106 15738 126 915 4453 2135 1023 994 758 3947 3927 12566 3900 7381 1112
internal_count=99430 13298 86132 12993 305 47458 38674 255 50 232 9943 3050 18483 28975 22936 106 15738 126 915 4453 2135 1023 994 758 3947 3927 12566 3900 7381 1112
is_linear=0
shrinkage=0.1


Tree=5
num_leaves=31
num_cat=0
split_feature=34 34 34 34 12 34 4 34 34 6 34 27 34 13 6 34 34 19 6 19 6 13 2 34 34 7 6 20 37 13
split_gain=2.90496e+13 1.10134e+13 7.69405e+12 3.73835e+12 2.66502e+12 1.62344e+12 1.1512e+12 1.05302e+12 8.37557e+11 5.81447e+11 4.50322e+11 3.94072e+11 2.81231e+11 1.95344e+11 1.73405e+11 1.72393e+11 1.59804e+11 1.18914e+11 1.12224e+11 1.1015e+11 1.08504e+11 1.09716e+11 1.06947e+11 8.92224e+10 8.6816e+10 8.65938e+10 7.81477e+10 7.73501e+10 7.15969e+10 7.04034e+10
threshold=82285.714285714304 252285.71428571432 40428.571428571442 125153.84615384617 590500.00000000012 57532.967032967041 575500.00000000012 21445.054945054948 171978.02197802201 324500.00000000006 102758.24175824177 796500.00000000012 67950.549450549457 138500.00000000003 185500.00000000003 29983.516483516487 48697.802197802208 485500.00000000006 255500.00000000003 376000.00000000006 48500.000000000007 58500.000000000007 -9499.9999999999982 154879.12087912092 11302.197802197805 76500.000000000015 230500.00000000003 132500.00000000003 36833.333333333336 97500.000000000015
decision_type=2 2 2 2 10 2 10 2 2 10 2 8 2 8 8 2 2 8 8 10 10 10 10 2 2 10 10 8 8 10
left_child=2 3 7 10 6 16 9 24 13 17 29 -6 -7 20 27 -9 -4 -3 -19 22 21 -5 -11 -15 -1 -14 -16 -10 -12 -2
right_child=1 4 5 8 11 12 -8 15 14 19 28 -13 25 23 26 -17 -18 18 -20 -21 -22 -23 -24 -25 -26 -27 -28 -29 -30 -31
leaf_value=-2981.5191329593172 1902.6629043336736 14225.488427734375 -684.03064769955938 -3866.4128225615532 34233.553260869572 391.22679289012854 39942.822932235053 -1832.3410459538734 2630.9329229445684 23268.217156250001 9426.4109057617188 52046.134606481486 864.07379730688854 5355.0444516603484 8609.3733633981628 -1249.7922329463709 -201.37680716700152 2212.9901757812499 12176.675225360577 25050.005799005681 4376.9369449582873 3968.0827887119394 14107.8701171875 6865.6169276528381 -2429.8520243174667 1485.7928898775708 11070.134599550898 7121.2259423938349 3426.8134948212764 2585.8188538680524
leaf_weight=4331 5194 80 14457 33 23 12505 23 8174 42 25 20 27 5485 1595 568 13420 13054 20 26 55 1170 39 26 518 8357 3787 167 443 3640 2126
leaf_count=4331 5194 80 14457 33 23 12505 23 8174 42 25 20 27 5485 1595 568 13420 13054 20 26 55 1170 39 26 518 8357 3787 167 443 3640 2126
internal_value=0 3923.6 -744.626 3554.61 22742.5 55.6044 18603.3 -1895.13 5956.26 16487.7 2553.92 43852.3 700.667 5140.35 8200.03 -1470.31 -455.011 11896 7844.64 21945.9 4145.07 377.272 18598.2 5725.36 -2618.16 1118.01 9168.49 6732.38 3459.6 2101.08
internal_weight=0 15860 83570 15555 305 49288 255 34282 4575 232 10980 50 21777 3355 1220 21594 27511 126 46 106 1242 72 51 2113 12688 9272 735 485 3660 7320
internal_count=99430 15860 83570 15555 305 49288 255 34282 4575 232 10980 50 21777 3355 1220 21594 27511 126 46 106 1242 72 51 2113 12688 9272 735 485 3660 7320
is_linear=0
shrinkage=0.1


Tree=6
num_leaves=31
num_cat=0
split_feature=37 37 37 37 36 9 36 17 36 37 4 36 8 3 37 36 28 20 14 5 13 4 13 13 4 13 3 4 5 5
split_gain=2.03957e+13 7.76038e+12 6.49708e+12 2.38556e+12 1.39167e+12 1.1685e+12 1.16504e+12 5.69973e+11 5.65111e+11 4.58502e+11 3.74717e+11 3.56411e+11 3.22948e+11 2.80097e+11 2.79675e+11 2.32452e+11 2.23909e+11 2.23768e+11 2.0182e+11 1.74808e+11 1.67017e+11 1.44453e+11 1.20072e+11 1.18779e+11 1.14371e+11 1.08373e+11 1.02373e+11 1.00914e+11 1.68684e+11 9.54748e+10
threshold=94500.000000000015 339833.33333333337 46500.000000000007 159833.33333333334 66928.571428571435 672500.00000000012 23500.000000000004 139500.00000000003 111928.57142857143 220833.33333333334 132500.00000000003 38500.000000000007 573500.00000000012 146500.00000000003 59166.666666666679 82357.142857142884 225500.00000000003 139500.00000000003 796500.00000000012 118500.00000000001 306000.00000000006 1.0000000180025095e-35 83500.000000000015 190500.00000000003 243500.00000000003 178500.00000000003 299500.00000000006 38500.000000000007 39500.000000000007 169500.00000000003
decision_type=10 10 8 10 10 10 8 10 8 10 10 10 8 8 10 10 8 10 10 10 10 10 8 10 10 10 10 8 10 10
left_child=2 3 6 8 10 12 7 -1 22 19 14 -8 16 -12 27 -6 -3 -10 -7 -5 29 -13 -2 -21 -15 -19 -17 28 -4 -11
right_child=1 5 4 9 15 18 11 -9 17 20 13 21 -14 24 -16 26 -18 25 -20 23 -22 -23 -24 -25 -26 -27 -28 -29 -30 -31
leaf_value=-2207.4635748290248 1070.2424154202761 8654.2765551757821 -1881.4820805598604 1699.5769179194806 869.32954739004913 45890.0800951087 -1342.5072403230622 14686.8679296875 3402.3562277287306 3158.3779607599431 -253.63178665046408 615.53357510610874 31758.738802083331 4765.1449219802334 352.75568002735309 1704.7228507781035 20401.217590899803 4666.7614045135251 32154.796367187504 5819.276386780879 17321.124036458332 -726.97649906968877 2446.1799148812656 7712.3716741158269 11998.5140703125 7701.0752000495577 7294.8968905362217 -211.33335932255127 -46.032020958343359 9990.5498117348598
leaf_weight=13191 774 20 993 83 9164 23 17020 20 3511 22 133 864 21 174 10282 4489 86 968 20 1061 30 11076 3512 482 25 134 33 19918 1010 291
leaf_count=13191 774 20 993 83 9164 23 17020 20 3511 22 133 864 21 174 10282 4489 86 968 20 1061 30 11076 3512 482 25 134 33 19918 1010 291
internal_value=0 4052.96 -506.115 3721.33 312.802 25253.5 -1403.68 -2181.89 3024.43 6871.03 -43.0842 -1048.68 20429.3 3299.29 -77.5427 1158.83 18184.8 3792.55 39501.6 6170.16 10193.5 -629.83 2197.7 6410.64 5673.86 5035.73 1745.52 -279.373 -955.968 9510.33
internal_weight=0 11038 88392 10868 46221 170 42171 13211 8899 1969 32535 28960 127 332 32203 13686 106 4613 43 1626 343 11940 4286 1543 199 1102 4522 21921 2003 313
internal_count=99430 11038 88392 10868 46221 170 42171 13211 8899 1969 32535 28960 127 332 32203 13686 106 4613 43 1626 343 11940 4286 1543 199 1102 4522 21921 2003 313
is_linear=0
shrinkage=0.1


Tree=7
num_leaves=31
num_cat=0
split_feature=34 34 34 34 12 34 34 4 23 6 34 6 34 0 34 5 20 6 7 34 3 34 37 37 4 15 6 7 6 34
split_gain=1.94659e+13 7.0208e+12 5.84296e+12 1.97337e+12 1.81261e+12 1.09524e+12 1.0798e+12 9.22826e+11 5.79419e+11 5.20045e+11 3.53701e+11 3.40241e+11 1.93986e+11 1.62477e+11 1.62028e+11 1.44015e+11 1.35655e+11 1.41384e+11 1.09887e+11 1.07811e+11 1.11106e+11 1.07706e+11 9.84832e+10 8.59665e+10 8.06846e+10 8.64163e+10 7.54754e+10 7.53309e+10 7.13103e+10 7.1176e+10
threshold=89252.747252747271 252285.71428571432 45076.923076923085 135483.51648351652 590500.00000000012 27620.879120879123 65181.318681318684 641500.00000000012 883500.00000000012 324500.00000000006 113109.89010989011 179500.00000000003 56021.97802197803 676433.00000000012 16384.615384615387 392000.00000000006 44500.000000000007 71500.000000000015 81500.000000000015 36390.109890109896 193500.00000000003 187060.43956043958 1.0000000180025095e-35 41500.000000000007 81500.000000000015 43500.000000000007 449500.00000000006 161500.00000000003 105500.00000000001 77708.791208791212
decision_type=2 2 2 2 10 2 2 8 8 10 2 8 2 2 2 10 8 10 10 2 10 2 8 8 10 10 10 8 8 2
left_child=2 3 5 10 7 14 12 9 -6 13 22 16 -4 -3 -1 -11 17 -5 29 -7 -21 -13 -2 -12 25 -18 -17 -26 -24 -8
right_child=1 4 6 11 8 19 18 -9 -10 15 23 21 -14 -15 -16 26 24 -19 -20 20 -22 -23 28 -25 27 -27 -28 -29 -30 -31
leaf_value=-2284.9494165585929 9110.7434814453136 11108.403263435785 -291.97174532659454 -6475.3548606178983 26478.167944335939 -1190.9930480562134 611.08944316820623 35818.006542968753 48164.748117897732 13465.929056490386 -2714.0051556131116 5975.6812936562446 232.58253243158913 2824.1539245605472 -1682.7377542325657 15933.086030505954 13263.926793323866 3812.9571202895222 1360.8462878937787 -777.31161424461482 5216.1704444146926 7891.2067231977117 1819.8843220826279 3420.709469240539 4071.0698875469166 5765.6246065027581 23036.264227764423 5415.5445857200302 2520.5242743054719 1207.4701448945561
leaf_weight=8845 20 91 18300 22 28 10370 7407 20 22 39 23 701 11468 32 9028 21 22 34 4613 13694 31 505 3880 3332 1001 51 52 714 2322 2742
leaf_count=8845 20 91 18300 22 28 10370 7407 20 22 39 23 701 11468 32 9028 21 22 34 4613 13694 31 505 3880 3332 1001 51 52 714 2322 2742
internal_value=0 3618.66 -541.013 3256.54 18610.7 -1387.62 256.883 15197.1 36020.3 13442.1 2551.05 5471.77 -89.8894 8953.15 -1980.76 18371.9 4617.61 -228.88 956.158 -947.641 -763.774 6777.79 2104.79 3378.65 4769.4 8025.39 20992.9 4630.81 2082.2 772.216
internal_weight=0 12932 86498 12627 305 41968 44530 255 50 235 9577 3050 29768 123 17873 112 1844 56 14762 24095 13725 1206 6222 3355 1788 73 73 1715 6202 10149
internal_count=99430 12932 86498 12627 305 41968 44530 255 50 235 9577 3050 29768 123 17873 112 1844 56 14762 24095 13725 1206 6222 3355 1788 73 73 1715 6202 10149
is_linear=0
shrinkage=0.1


Tree=8
num_leaves=31
num_cat=0
split_feature=34 34 34 34 5 34 19 21 34 6 34 14 5 7 13 34 34 3 5 20 8 13 34 34 27 7 7 1 3 6
split_gain=1.57723e+13 6.09185e+12 3.94098e+12 2.27354e+12 1.37295e+12 7.70384e+11 6.77436e+11 7.40667e+11 5.912e+11 4.49667e+11 3.50707e+11 2.13199e+11 1.97525e+11 1.70906e+11 1.40774e+11 1.3012e+11 1.16864e+11 1.00061e+11 9.54559e+10 9.35254e+10 8.26524e+10 8.20059e+10 7.98742e+10 7.77034e+10 6.48228e+10 9.76347e+10 7.06827e+10 8.0993e+10 5.91011e+10 5.84572e+10
threshold=79587.912087912104 252285.71428571432 40428.571428571442 126521.97802197804 594000.00000000012 56357.142857142862 376000.00000000006 530500.00000000012 19703.29670329671 179500.00000000003 96813.186813186825 796500.00000000012 181500.00000000003 315500.00000000006 138500.00000000003 65763.736263736282 30857.142857142859 190500.00000000003 230500.00000000003 44500.000000000007 435500.00000000006 112500.00000000001 47609.890109890119 145791.20879120883 89500.000000000015 151500.00000000003 12500.000000000002 49500.000000000007 -237499.99999999997 209500.00000000003
decision_type=2 2 2 2 10 2 10 8 2 10 2 10 8 8 8 2 2 10 10 8 10 8 2 2 10 10 8 2 8 10
left_child=2 3 8 10 6 22 12 20 -1 14 -2 -6 -3 -14 19 -7 -10 -18 28 -5 -8 -12 -4 -16 26 -26 27 -17 -11 -30
right_child=1 4 5 9 11 15 7 -9 16 18 21 -13 13 -15 23 24 17 -19 -20 -21 -22 -23 -24 -25 25 -27 -28 -29 29 -31
leaf_value=-1984.8842715900682 1370.2816237401703 823.195185546875 -535.85894972092217 -843.81119574875129 36048.39403409091 222.96533717900957 10596.141759672619 38028.089960937497 -1350.4385474352123 3071.5174506293406 2007.8027798445714 23506.434752887231 8290.1346487022311 14948.055331251358 3674.8325324970156 -2879.4569510323663 -908.00181703340832 6170.9206060791021 8471.6665957276928 3184.9988676177541 18621.380871212121 2787.9274345506433 -187.65336198197932 4916.5744246602271 1397.2149770131355 7752.4905795898439 697.38576360675359 385.95912349155969 5501.2645809509086 7238.4169169611314
leaf_weight=11407 7320 20 12566 61 33 11407 21 20 10431 72 2484 23 83 72 907 119 12424 20 159 1040 33 2945 13847 1134 731 25 8919 210 614 283
leaf_count=11407 7320 20 12566 61 33 11407 21 20 10431 72 2484 23 83 72 907 119 12424 20 159 1040 33 2945 13847 1134 731 25 8919 210 614 283
internal_value=0 2741.9 -578.529 2490.87 16749.6 8.04788 13567.8 21589 -1396.81 4488.01 1821.97 30897.2 10176 11382.8 3873.14 453.828 -1103.56 -896.625 6200.7 2961.79 15500.5 2430.99 -353.312 4364.76 717.069 1607.38 644.288 -795.149 5828.07 6049.33
internal_weight=0 17324 82106 17019 305 47824 249 74 34282 4270 12749 56 175 155 3142 21411 22875 12444 1128 1101 54 5429 26413 2041 10004 756 9248 329 969 897
internal_count=99430 17324 82106 17019 305 47824 249 74 34282 4270 12749 56 175 155 3142 21411 22875 12444 1128 1101 54 5429 26413 2041 10004 756 9248 329 969 897
is_linear=0
shrinkage=0.1


Tree=9
num_leaves=31
num_cat=0
split_feature=34 34 34 34 12 34 4 34 23 5 6 7 34 11 34 13 6 20 13 7 37 6 7 11 6 20 4 32 7 6
split_gain=1.28143e+13 4.60262e+12 3.84022e+12 1.29765e+12 1.24479e+12 7.9137e+11 6.69607e+11 6.45202e+11 4.46562e+11 3.59324e+11 3.63437e+11 2.52748e+11 2.02163e+11 1.4722e+11 1.28911e+11 1.25241e+11 1.21822e+11 1.07524e+11 1.05885e+11 8.04167e+10 7.92116e+10 7.56086e+10 7.27492e+10 1.3548e+11 1.01028e+11 7.19808e+10 6.9976e+10 5.79961e+10 5.74615e+10 5.58154e+10
threshold=89252.747252747271 252285.71428571432 45978.021978021985 133060.43956043958 590500.00000000012 28780.219780219784 641500.00000000012 65181.318681318684 883500.00000000012 163500.00000000003 373000.00000000006 179500.00000000003 113109.89010989011 489000.00000000006 16978.021978021981 233500.00000000003 56500.000000000007 71500.000000000015 83500.000000000015 40500.000000000007 1.0000000180025095e-35 56500.000000000007 61500.000000000007 56500.000000000007 187500.00000000003 175500.00000000003 48500.000000000007 314000.00000000006 513500.00000000006 209500.00000000003
decision_type=2 2 2 2 10 2 8 2 8 10 10 8 2 8 2 10 10 8 10 10 8 10 8 10 10 10 10 10 8 10
left_child=2 3 5 12 6 14 9 16 -6 -3 13 17 20 27 -1 29 -4 21 -9 -7 -2 -5 23 -14 -24 26 -19 -11 -12 -13
right_child=1 4 7 11 8 19 -8 18 -10 10 28 15 22 -15 -16 -17 -18 25 -20 -21 -22 -23 24 -25 -26 -27 -28 -29 -30 -31
leaf_value=-1835.1569923611294 7989.2842626953125 -1731.7666852678574 -229.33163314597078 -5424.2197607421876 21124.879401506696 -867.4240588517132 29811.227622070317 618.10872700489233 40163.511558948871 9011.9719476744194 15516.182046750992 4760.0111321331369 -5126.0649399266104 1180.3661665482955 -1316.2605893227128 8230.8581416630241 192.0541072791589 7736.6488345497537 1240.9195292842967 -497.55225456295324 1685.8322032385511 1893.9811896006267 2697.4350292977979 2195.0739572030525 5963.6850286989793 5016.6425743103027 3394.750002281718 14873.788532366072 21452.490280983664 6602.8734058227537
leaf_weight=9699 20 21 15829 20 28 14962 20 11147 22 86 63 922 33 22 9455 143 12109 38 3615 9682 6202 48 2811 108 98 384 1600 21 22 200
leaf_count=9699 20 21 15829 20 28 14962 20 11147 22 86 63 922 33 22 9455 143 12109 38 3615 9682 6202 48 2811 108 98 384 1600 21 22 200
internal_value=0 2936.02 -438.954 2642.82 15074.7 -1096.86 12245.8 235.866 29501.9 10750.9 11975.8 4328.09 2033.02 8630.6 -1579.01 5443.73 -46.6929 3652.83 770.626 -722.111 1706.09 -258.431 2699.95 481.616 2807.47 3784.36 3495.48 10162.4 17052.6 5088.51
internal_weight=0 12932 86498 12627 305 43798 255 42700 50 235 214 3355 9272 129 19154 1265 27938 2090 14762 24644 6222 68 3050 141 2909 2022 1638 107 85 1122
internal_count=99430 12932 86498 12627 305 43798 255 42700 50 235 214 3355 9272 129 19154 1265 27938 2090 14762 24644 6222 68 3050 141 2909 2022 1638 107 85 1122
is_linear=0
shrinkage=0.1


Tree=10
num_leaves=31
num_cat=0
split_feature=34 34 34 34 12 34 6 34 34 20 29 34 37 6 1 11 20 29 25 34 37 7 9 7 34 7 6 27 9 6
split_gain=1.03959e+13 3.99326e+12 2.60412e+12 1.50203e+12 1.00828e+12 5.13108e+11 4.76366e+11 3.8878e+11 3.47117e+11 2.64103e+11 2.55856e+11 1.78609e+11 1.45459e+11 1.00234e+11 9.49602e+10 9.74914e+10 7.69944e+10 6.85013e+10 9.98719e+10 6.40611e+10 6.14637e+10 6.10591e+10 5.89501e+10 5.87205e+10 5.7218e+10 5.67127e+10 5.42496e+10 5.30796e+10 6.76953e+10 4.92395e+10
threshold=79587.912087912104 252285.71428571432 40428.571428571442 122829.67032967033 590500.00000000012 56681.318681318691 655500.00000000012 21445.054945054948 171978.02197802201 342000.00000000006 1022000.0000000001 96813.186813186825 248333.33333333334 69500.000000000015 155500.00000000003 66500.000000000015 210500.00000000003 83500.000000000015 102500.00000000001 32214.285714285721 36833.333333333336 448500.00000000006 138500.00000000003 54500.000000000007 10005.494505494507 77500.000000000015 119500.00000000001 288000.00000000006 349500.00000000006 161500.00000000003
decision_type=2 2 2 2 10 2 8 2 2 10 8 2 10 10 2 8 10 8 10 2 8 8 10 10 2 10 8 10 8 8
left_child=2 3 7 11 6 23 9 24 14 12 -6 -2 -3 -7 15 25 29 18 -16 -9 -13 27 -21 -4 -1 -5 -22 28 -14 -10
right_child=1 4 5 8 10 13 -8 19 16 -11 -12 20 21 -15 17 -17 -18 -19 -20 22 26 -23 -24 -25 -26 -27 -28 -29 -30 -31
leaf_value=-1951.6813524264978 1111.895909987807 -491.42439630681821 -373.41691270464031 -3070.0121058022105 20210.871816144674 202.94857680055213 23327.713462611609 -1054.9003911643319 3066.2364069173627 14171.882540545887 34621.82181729404 7296.9878679548001 7736.5613208007817 650.86280896726203 12233.431530230979 2817.4770018684576 6504.6483379213832 3605.7684977786917 3266.1468370225698 -719.9605759515739 1651.9971727798538 12859.379541015625 4714.004189453125 -40.070210788119638 -1454.7233814962922 1424.9366525028529 2388.5789812569506 11603.438192471593 1018.6612915039063 4892.0299445327446
leaf_weight=3050 7320 22 19535 41 28 12885 28 10431 182 79 22 21 60 8160 23 2451 254 1090 27 11143 3303 24 20 7244 9638 89 1434 22 20 784
leaf_count=3050 7320 22 19535 41 28 12885 28 10431 182 79 22 21 60 8160 23 2451 254 1090 27 11143 3303 24 20 7244 9638 89 1434 22 20 784
internal_value=0 2226.05 -469.687 2022.8 13567.2 7.13167 11021.2 -1134.86 3491.6 9503.24 26551.7 1421.93 7011.19 376.623 3011.67 2675.93 4955.4 3771.79 7391.1 -876.721 1898.91 8321.17 -710.225 -283.243 -1574.18 7.29897 1874.98 7253.36 6057.09 4548.04
internal_weight=0 17324 82106 17019 305 47824 255 34282 4941 227 50 12078 148 21045 3721 2581 1220 1140 50 21594 4758 126 11163 26779 12688 130 4737 102 80 966
internal_count=99430 17324 82106 17019 305 47824 255 34282 4941 227 50 12078 148 21045 3721 2581 1220 1140 50 21594 4758 126 11163 26779 12688 130 4737 102 80 966
is_linear=0
shrinkage=0.1


Tree=11
num_leaves=31
num_cat=0
split_feature=34 34 34 34 6 34 34 10 7 7 13 1 3 13 6 13 13 6 37 7 1 13 7 20 7 1 3 16 6 16
split_gain=8.43995e+12 3.13495e+12 2.31523e+12 1.04068e+12 7.46534e+11 4.65188e+11 3.66544e+11 2.69654e+11 2.1296e+11 2.12504e+11 1.803e+11 1.46584e+11 1.46744e+11 1.22969e+11 1.13662e+11 9.51594e+10 9.48972e+10 1.08566e+11 8.22874e+10 7.4509e+10 7.98343e+10 6.86303e+10 6.69791e+10 6.44486e+10 6.4423e+10 6.16074e+10 6.88837e+10 5.57563e+10 5.34196e+10 5.28027e+10
threshold=83862.637362637368 252285.71428571432 42137.362637362654 133060.43956043958 582500.00000000012 60115.384615384624 22428.571428571431 164500.00000000003 99500.000000000015 327500.00000000006 185500.00000000003 497500.00000000006 143500.00000000003 774000.00000000012 131500.00000000003 78500.000000000015 72500.000000000015 96500.000000000015 36833.333333333336 182500.00000000003 31500.000000000004 223500.00000000003 57500.000000000007 210500.00000000003 35500.000000000007 168500.00000000003 23500.000000000004 128500.00000000001 206500.00000000003 41500.000000000007
decision_type=2 2 2 2 10 2 2 8 8 8 10 2 8 8 10 10 8 10 8 8 2 10 10 10 10 2 10 10 10 8
left_child=2 3 6 8 7 22 -1 -3 -2 21 16 12 -11 -6 18 -7 17 -5 -10 20 -18 -9 -4 -12 -8 -20 -27 -25 -16 -17
right_child=1 4 5 10 13 15 24 9 14 11 23 -13 -14 -15 28 29 19 -19 25 -21 -22 -23 -24 27 -26 26 -28 -29 -30 -31
leaf_value=-1397.4538425759508 1032.5686060226396 20972.092255859374 -271.61042645224711 -3945.2935028076172 17083.660660807291 336.83230120670351 -883.06196796264271 815.56409403483076 7962.4725946335566 12002.00662860577 4224.5724530581001 17124.587220982143 2986.8140781250004 26491.125651041672 2674.2363737128135 2272.2974788245256 8017.8687011718757 2803.212291239076 1626.1436630405897 4142.6840384294337 2815.9528858114227 6921.5726173111152 80.722376245575958 10977.111241566052 -546.2738453448718 1400.2434693818934 5281.2125049321339 5705.5645555998153 5615.1836945504856 785.44770417552184
leaf_weight=13542 5087 20 21256 40 24 14591 13744 24 21 65 535 35 25 33 962 254 30 59 5148 661 1780 79 7231 22 9680 85 99 228 66 4004
leaf_count=13542 5087 20 21256 40 24 14591 13744 24 21 65 535 35 25 33 962 254 30 59 5148 661 1780 79 7231 22 9680 85 99 228 66 4004
internal_value=0 2174.9 -390.286 1968.41 12210.5 72.8234 -983.31 9838.63 1515.2 8862.01 3517.54 11633.3 9497.79 22530.1 1899.97 458.211 3112.38 76.5433 1715.01 3234.01 2902.17 5498.81 -182.176 4843.96 -743.884 1690.41 3488.37 6169.46 2863.05 874.142
internal_weight=0 15128 84302 14823 305 47336 36966 248 11468 228 3355 125 90 57 6381 18849 2570 99 5353 2471 1810 103 28487 785 23424 5332 184 250 1028 4258
internal_count=99430 15128 84302 14823 305 47336 36966 248 11468 228 3355 125 90 57 6381 18849 2570 99 5353 2471 1810 103 28487 785 23424 5332 184 250 1028 4258
is_linear=0
shrinkage=0.1


Tree=12
num_leaves=31
num_cat=0
split_feature=34 34 34 34 1 34 19 27 34 13 7 5 6 5 4 34 20 6 34 6 25 27 6 13 27 7 7 13 11 8
split_gain=6.85752e+12 2.44191e+12 2.07286e+12 7.18389e+11 6.15612e+11 4.73003e+11 4.3516e+11 3.41994e+11 3.15813e+11 2.22703e+11 2.04664e+11 1.37367e+11 1.01415e+11 8.82485e+10 1.20474e+11 8.71313e+10 8.60801e+10 8.02374e+10 7.43717e+10 6.79961e+10 6.83546e+10 6.66401e+10 6.49081e+10 6.46238e+10 5.95441e+10 5.53598e+10 5.47289e+10 5.2817e+10 4.76748e+10 4.74659e+10
threshold=89252.747252747271 252285.71428571432 47098.901098901108 149879.12087912092 672500.00000000012 28939.560439560442 376000.00000000006 607000.00000000012 66076.923076923093 853000.00000000012 115500.00000000001 163500.00000000003 209500.00000000003 9500.0000000000018 38500.000000000007 12170.329670329673 243500.00000000003 313500.00000000006 115593.4065934066 91500.000000000015 192500.00000000003 89500.000000000015 58500.000000000007 137500.00000000003 122500.00000000001 136500.00000000003 40500.000000000007 233500.00000000003 286500.00000000006 121500.00000000001
decision_type=2 2 2 2 2 2 10 8 2 8 8 10 10 8 10 2 10 10 2 10 10 10 10 8 10 10 10 10 8 10
left_child=2 3 5 10 6 15 11 -8 22 -6 16 -3 23 14 -12 -1 19 28 -15 20 -2 29 -4 -5 -21 -23 -7 -20 -13 -10
right_child=1 4 8 12 9 26 7 -9 21 -11 13 17 -14 18 -16 -17 -18 -19 27 24 -22 25 -24 -25 -26 -27 -28 -29 -30 -31
leaf_value=-1503.5118833062552 766.37082849503622 -597.3771015625 -129.87003215262695 1650.8947050511561 14177.537448952415 -627.34200366556342 10563.841317471592 24305.932743778936 538.99844659431926 27972.8295234375 11665.544959077382 7512.1217635244702 5032.9533586096059 1479.8586080609039 3319.1618910186148 -1025.4223627150093 6647.4598776850216 10283.894062003443 2287.6296104071666 1267.8697456880386 -3695.3458138602127 1054.9789633560331 190.64086355320589 3503.4697943277288 2414.3011292534907 3908.0737004669618 -336.75007945110724 5903.3775896770203 2905.6552333733976 -618.61003800901653
leaf_weight=5185 1813 25 15841 215 22 15280 55 27 11980 25 21 53 404 1565 98 14396 29 59 2759 3613 35 1614 10511 1516 518 71 11255 41 39 365
leaf_count=5185 1813 25 15841 215 22 15280 55 27 11980 25 21 53 404 1565 98 14396 29 59 2759 3613 35 1614 10511 1516 518 71 11255 41 39 365
internal_value=0 2147.81 -321.111 1934.24 10989.4 -779.2 9071.9 15088.7 202.025 21515.5 1593.99 6268.63 3606.33 2105.23 4792.05 -1152.02 1212.43 7405.38 2031.98 1186.07 681.869 585.29 -2.02812 3273.37 1411.62 1175.2 -504.085 2340.57 5559.38 504.772
internal_weight=0 12932 86498 12627 305 46116 258 82 40382 47 10492 176 2135 4484 119 19581 6008 151 4365 5979 1848 14030 26352 1731 4131 1685 26535 2800 92 12345
internal_count=99430 12932 86498 12627 305 46116 258 82 40382 47 10492 176 2135 4484 119 19581 6008 151 4365 5979 1848 14030 26352 1731 4131 1685 26535 2800 92 12345
is_linear=0
shrinkage=0.1


Tree=13
num_leaves=31
num_cat=0
split_feature=34 34 34 34 12 6 34 7 1 34 20 0 6 21 7 6 3 1 27 22 1 20 10 20 10 27 20 7 21 16
split_gain=5.57823e+12 2.12793e+12 1.38692e+12 8.2252e+11 5.89253e+11 3.12466e+11 3.08296e+11 2.41229e+11 2.28539e+11 1.79725e+11 1.70096e+11 1.59358e+11 9.33328e+10 8.47482e+10 8.14629e+10 8.06218e+10 7.52412e+10 7.36753e+10 6.31654e+10 6.70238e+10 6.24409e+10 6.13516e+10 6.07125e+10 5.90274e+10 5.26362e+10 4.70471e+10 4.64983e+10 4.62646e+10 4.36851e+10 6.13603e+10
threshold=78873.626373626394 252285.71428571432 38120.87912087913 120565.93406593408 590500.00000000012 655500.00000000012 54247.252747252758 788000.00000000012 175500.00000000003 19703.29670329671 250500.00000000003 676433.00000000012 91500.000000000015 385500.00000000006 76500.000000000015 136500.00000000003 193500.00000000003 177500.00000000003 1.0000000180025095e-35 78500.000000000015 1.0000000180025095e-35 180500.00000000003 193500.00000000003 194500.00000000003 133500.00000000003 120500.00000000001 78500.000000000015 143500.00000000003 54500.000000000007 129500.00000000001
decision_type=2 2 2 2 10 8 2 10 2 2 10 2 8 8 10 8 10 2 8 8 2 10 10 8 10 10 10 8 8 10
left_child=2 3 9 12 5 10 -4 -6 15 -1 11 -3 -2 -12 20 22 -11 -16 -10 -20 24 -17 28 -21 26 -14 -8 -25 29 -5
right_child=1 4 6 8 7 -7 14 -9 18 16 13 -13 25 -15 17 21 -18 -19 19 23 -22 -23 -24 27 -26 -27 -28 -29 -30 -31
leaf_value=-1187.8707986296347 690.27365558425993 6365.7447518770814 -260.98171043969779 8887.2608752441411 27046.304870605469 17911.172171456474 -143.25142595110606 13143.325475135216 -1470.737263997396 -696.41445946815554 6699.6815805796032 -2439.363339922505 1164.5750281429168 11734.123040471313 593.16179335238655 2292.1025813447795 5154.9475008877844 5833.1551007306143 8226.8385467529297 2809.6862329393516 180.49031663336737 3774.0169632191328 -1585.7239118904904 1790.8534266291438 -4240.5095592680436 2041.5244295470668 -2334.0484009797906 4422.4696824341709 1624.6510708249148 1053.9819702148438
leaf_weight=11407 5221 61 26291 20 24 28 486 26 24 19864 74 31 6178 61 4324 1918 22 27 32 554 19156 327 58 74 42 679 121 687 1593 20
leaf_count=11407 5221 61 26291 20 24 28 486 26 24 19864 74 31 6178 61 4324 1918 22 27 32 554 19156 327 58 74 42 679 121 687 1593 20
internal_value=0 1610.06 -348.447 1464.79 9890.49 7944.16 -24.0215 19816.8 2502.46 -871.448 6714.75 3398.81 1008.85 8974.5 233.882 2115.16 -689.941 625.678 3614.36 3704.96 147.808 2507.95 1593.69 3594.92 -816.859 1251.41 -579.967 4166.57 1706.61 4970.62
internal_weight=0 17690 81740 17385 305 255 50447 50 5307 31293 227 92 12078 135 24156 3936 19886 4351 1371 1347 19805 2245 1691 1315 649 6857 607 761 1633 40
internal_count=99430 17690 81740 17385 305 255 50447 50 5307 31293 227 92 12078 135 24156 3936 19886 4351 1371 1347 19805 2245 1691 1315 649 6857 607 761 1633 40
is_linear=0
shrinkage=0.1


Tree=14
num_leaves=31
num_cat=0
split_feature=34 34 34 12 1 34 4 23 34 37 13 13 13 20 24 34 37 1 13 1 1 16 7 7 10 7 10 7 11 1
split_gain=4.54297e+12 1.53445e+12 1.50508e+12 4.77295e+11 4.08064e+11 3.56369e+11 3.40822e+11 3.19515e+11 2.31259e+11 1.98787e+11 1.23793e+11 1.19384e+11 8.83568e+10 8.08119e+10 9.20562e+10 6.41963e+10 6.39635e+10 5.94716e+10 5.8538e+10 6.25028e+10 5.74206e+10 5.67151e+10 5.48474e+10 5.41741e+10 5.39736e+10 5.11324e+10 5.41591e+10 5.05125e+10 5.32187e+10 4.83701e+10
threshold=93934.065934065948 252285.71428571432 48895.604395604401 590500.00000000012 155500.00000000003 29296.703296703301 641500.00000000012 883500.00000000012 68945.054945054959 220833.33333333334 508000.00000000006 112500.00000000001 214500.00000000003 176500.00000000003 100500.00000000001 11692.307692307693 49166.666666666679 1.0000000180025095e-35 90500.000000000015 173500.00000000003 25500.000000000004 124500.00000000001 145500.00000000003 78500.000000000015 199500.00000000003 56500.000000000007 104500.00000000001 396000.00000000006 489000.00000000006 4500.0000000000009
decision_type=2 2 2 10 2 2 8 8 2 10 10 8 10 10 8 2 8 2 10 2 2 10 8 10 10 8 10 8 8 2
left_child=2 4 5 6 11 15 9 -5 -4 -3 27 -2 22 16 21 -1 -13 23 25 -20 -19 -15 24 -18 -6 26 -10 28 -11 -7
right_child=1 3 8 7 12 29 -8 -9 18 10 -12 13 -14 14 -16 -17 17 20 19 -21 -22 -23 -24 -25 -26 -27 -28 -29 -30 -31
leaf_value=-1254.1198628905443 925.89087805106283 -2162.8474853515627 48.326686720513337 10749.21328125 2174.7802990476803 -913.4156386139914 19681.518223266601 26853.456214488637 21.61215351060763 6013.0799125239537 13711.62718041992 5980.8276866566048 4475.8341882738014 11544.976369628908 2602.4062675193509 -833.38399056316666 -3455.4006735158528 6839.8336832682298 909.37544056862305 4940.5619253305294 1598.536868040547 4014.0365673828128 2954.5865386946393 900.29252469231108 -738.408801651001 516.17566462045829 -2321.4361767578125 8685.1210262900913 502.83083379836307 -353.70624886983251
leaf_weight=4758 3433 26 25925 28 545 1636 20 22 694 106 25 33 295 20 243 15250 43 21 2789 39 4484 20 1503 85 72 9661 115 57 21 27461
leaf_count=4758 3433 26 25925 28 545 1636 20 22 694 106 25 33 295 20 243 15250 43 21 2789 39 4484 20 1503 85 72 9661 115 57 21 27461
internal_value=0 1906.6 -239.642 8901.44 1709.01 -608.567 7149.74 17835.1 222.232 6083.21 7109.04 1379.02 2854.33 1693.34 3334.15 -933.437 1593.82 1562.58 561.268 964.968 1622.97 7779.51 2628.69 -562.948 1834.83 452.226 -311.454 6211.94 5101.94 -385.176
internal_weight=0 11102 88328 305 10797 49105 255 50 39223 235 209 8382 2415 4949 283 20008 4666 4633 13298 2828 4505 40 2120 128 617 10470 809 184 127 29097
internal_count=99430 11102 88328 305 10797 49105 255 50 39223 235 209 8382 2415 4949 283 20008 4666 4633 13298 2828 4505 40 2120 128 617 10470 809 184 127 29097
is_linear=0
shrinkage=0.1


Tree=15
num_leaves=31
num_cat=0
split_feature=34 34 34 12 5 34 34 23 20 0 7 21 13 1 1 7 34 13 13 34 2 5 7 20 33 19 13 31 7 5
split_gain=3.68103e+12 1.24687e+12 1.23113e+12 3.86609e+11 3.84722e+11 3.20487e+11 3.17914e+11 2.58807e+11 1.84523e+11 3.31079e+11 1.83652e+11 1.21807e+11 8.30307e+10 7.43831e+10 7.2228e+10 9.10978e+10 6.20753e+10 5.93649e+10 5.60581e+10 5.65548e+10 5.57757e+10 6.87496e+10 4.80222e+10 4.39947e+10 4.21062e+10 4.1581e+10 6.36023e+10 4.66052e+10 4.15441e+10 4.82252e+10
threshold=94730.769230769234 51142.857142857152 252285.71428571432 590500.00000000012 546500.00000000012 149879.12087912092 31346.153846153855 883500.00000000012 250500.00000000003 676433.00000000012 75500.000000000015 492500.00000000006 116500.00000000001 396000.00000000006 164500.00000000003 144500.00000000003 14615.384615384619 66500.000000000015 137500.00000000003 200807.69230769234 -149499.99999999997 247500.00000000003 41500.000000000007 121500.00000000001 171500.00000000003 30500.000000000004 69500.000000000015 39500.000000000007 134500.00000000003 2500.0000000000005
decision_type=2 2 2 10 10 2 2 8 10 2 10 8 8 2 2 10 2 10 8 2 8 10 10 10 10 8 10 8 8 8
left_child=1 6 5 4 8 12 16 -5 9 13 17 -10 25 -4 24 -16 -1 -3 -7 -20 21 -14 -8 28 -12 26 -2 -27 -22 -30
right_child=2 10 3 7 -6 18 22 -9 11 -11 14 -13 20 -15 15 -17 -18 -19 19 -21 23 -23 -24 -25 -26 27 -28 -29 29 -31
leaf_value=-1047.7148694777766 -4290.6223260176812 3.2476361411532233 3504.6213925781253 9674.2918805803565 18485.229581705727 1183.67645831813 -438.3665108421813 24168.110404829546 5870.3896849365237 -7299.9292253766753 556.42073496219234 12876.965189985796 8755.4201394399006 10720.448691406251 955.47718093673905 6659.4158566561618 -694.46619241801318 330.4099871282765 2603.6628260469824 4111.8688951660988 984.30823245883823 1675.1693393707276 -183.25520133062452 1950.2620933341864 3465.820105957031 3568.9166496829712 803.99763905621967 945.16109841256775 6630.06256225586 1676.2634037528478
leaf_weight=7503 38 19232 50 28 24 230 15020 22 100 28 9708 33 24 20 77 44 14762 7794 1611 294 1704 32 14504 1619 50 69 69 3593 20 1128
leaf_count=7503 38 19232 50 28 24 230 15020 22 100 28 9708 33 24 20 77 44 14762 7794 1611 294 1704 32 14504 1619 50 69 69 3593 20 1128
internal_value=0 -211.69 1748.85 8011.29 6434.77 1565.74 -528.199 16051.6 5182.77 1890.22 232.469 7608.86 1284.54 5566.29 601.438 3029.64 -813.506 97.5976 2658.38 2836.43 1573.2 4709.56 -313.04 1533.92 571.328 937.822 -1005.31 994.598 1297.58 1762.57
internal_weight=0 88694 10736 305 255 10431 51789 50 231 98 36905 133 8296 70 9879 121 22265 27026 2135 1905 4527 56 29524 4471 9758 3769 107 3662 2852 1148
internal_count=99430 88694 10736 305 255 10431 51789 50 231 98 36905 133 8296 70 9879 121 22265 27026 2135 1905 4527 56 29524 4471 9758 3769 107 3662 2852 1148
is_linear=0
shrinkage=0.1


Tree=16
num_leaves=31
num_cat=0
split_feature=34 34 34 34 1 11 7 9 7 20 0 7 24 7 20 11 2 1 17 5 18 1 16 7 23 1 11 21 34 35
split_gain=3.00484e+12 1.13794e+12 7.34818e+11 4.68085e+11 2.59852e+11 3.23975e+11 1.82699e+11 1.75646e+11 1.68692e+11 1.27577e+11 1.11446e+11 1.02318e+11 8.05422e+10 7.95229e+10 7.32032e+10 7.03994e+10 5.88923e+10 6.02676e+10 5.52003e+10 5.31523e+10 4.84138e+10 4.66364e+10 4.33179e+10 5.46198e+10 4.32365e+10 4.06673e+10 7.07463e+10 4.01748e+10 3.94925e+10 4.37519e+10
threshold=77708.791208791212 252285.71428571432 37868.131868131873 126521.97802197804 672500.00000000012 181500.00000000003 60500.000000000007 855500.00000000012 327500.00000000006 175500.00000000003 676433.00000000012 20500.000000000004 88500.000000000015 99500.000000000015 71500.000000000015 532500.00000000012 -166499.99999999997 175500.00000000003 180500.00000000003 141500.00000000003 133500.00000000003 166500.00000000003 188500.00000000003 95500.000000000015 543500.00000000012 164500.00000000003 104500.00000000001 172500.00000000003 53241.758241758253 35883.333333333336
decision_type=2 2 2 2 2 8 10 8 10 10 2 10 8 8 8 10 8 2 10 10 10 2 10 10 8 2 10 10 2 8
left_child=2 3 11 13 5 -3 20 -6 10 14 -7 19 -11 18 22 24 -16 -18 -2 -1 28 -15 23 -5 -10 -8 -27 -20 -4 -30
right_child=1 4 6 9 7 8 25 -9 15 12 -12 -13 -14 21 16 -17 17 -19 27 -21 -22 -23 -24 -25 -26 26 -28 -29 29 -31
leaf_value=-840.6222072479294 583.65066899520423 17570.562182617188 -226.51352307197158 -3210.7906200408938 8787.4470529061782 3840.1626608089523 241.01690398267638 21151.799143066408 8024.6963215312026 7776.277338005515 -3639.8453649902349 -469.42035744040453 2818.1719613151863 977.99454768454052 5909.3404598460475 12896.098883928571 1489.2878081545859 2529.739495009846 -777.04008382161464 4318.0320138549805 -2083.6757071509728 2377.4731212492911 -4510.1067993164061 1776.3436026436943 3438.2798513104844 85.122084705249691 7056.3682617187505 -5764.0362561035163 3047.3876953125 -10.044702116629768
leaf_weight=14943 7519 22 22568 32 27 98 16113 20 61 34 25 15903 901 5976 34 21 2455 720 84 20 130 248 24 70 31 37 24 20 47 11223
leaf_count=14943 7519 22 22568 32 27 98 16113 20 61 34 25 15903 901 5976 34 21 2455 720 84 20 130 248 24 70 31 37 24 20 47 11223
internal_value=0 1152.78 -262.154 1050.81 7210.17 5964.35 -25.8532 14048.9 4882.42 1966.15 2319.84 -646.026 2998.47 768.544 1676.73 7671.78 1769.56 1725.23 552.003 -833.727 -157.57 1033.76 -687.649 211.752 6479.27 250.773 2827.91 -1736.08 -150.17 2.7059
internal_weight=0 18422 81008 18117 305 258 50142 47 236 4270 123 30866 935 13847 3335 113 3209 3175 7623 14963 33968 6224 126 102 92 16174 61 104 33838 11270
internal_count=99430 18422 81008 18117 305 258 50142 47 236 4270 123 30866 935 13847 3335 113 3209 3175 7623 14963 33968 6224 126 102 92 16174 61 104 33838 11270
is_linear=0
shrinkage=0.1


Tree=17
num_leaves=31
num_cat=0
split_feature=34 34 34 14 1 6 6 21 37 1 7 27 3 7 20 22 7 24 7 23 20 27 2 7 36 34 7 1 6 3
split_gain=2.4425e+12 8.27847e+11 8.05198e+11 2.80544e+11 3.12793e+11 2.59317e+11 2.22316e+11 1.74351e+11 1.58e+11 1.56496e+11 1.31557e+11 9.22256e+10 6.50299e+10 5.82179e+10 5.72554e+10 4.98006e+10 4.73434e+10 4.68904e+10 5.17194e+10 5.11213e+10 4.83672e+10 4.68869e+10 4.58856e+10 4.19404e+10 4.24761e+10 3.93173e+10 3.89612e+10 3.825e+10 4.36424e+10 3.7813e+10
threshold=94730.769230769234 44862.637362637368 252285.71428571432 156500.00000000003 672500.00000000012 136500.00000000003 69500.000000000015 385500.00000000006 205833.33333333334 22500.000000000004 788000.00000000012 181500.00000000003 201500.00000000003 83500.000000000015 256500.00000000003 561500.00000000012 57500.000000000007 199500.00000000003 306000.00000000006 153500.00000000003 85500.000000000015 78500.000000000015 -136499.99999999997 8500.0000000000018 43071.42857142858 26313.186813186818 396000.00000000006 155500.00000000003 227500.00000000003 -262499.99999999994
decision_type=2 2 2 8 2 8 10 10 10 2 10 10 10 10 8 8 8 10 10 10 8 8 8 10 10 2 8 2 10 8
left_child=1 9 5 -4 7 17 16 8 -5 23 -6 27 25 29 -10 -9 -3 18 20 -19 21 -2 -18 24 -1 -11 -16 -7 -29 -8
right_child=2 6 3 4 10 11 13 15 14 12 -12 -13 -14 -15 26 -17 22 19 -20 -21 -22 -23 -24 -25 -26 -27 -28 28 -30 -31
leaf_value=-944.49381458594041 -2011.5901545474405 -155.14724484068961 17937.906047363282 -5451.8141956676145 18357.275028483073 1419.6714553962288 -972.95998548149555 6700.772924113724 -239.9389373779297 -652.20351187697918 7651.4619850852287 2986.9992656701966 5350.7265039062504 719.82771249828238 3640.1256452889279 12557.106953125001 2871.0389948440811 569.65652800473299 5761.0895219282675 -3338.8137057269059 990.750382276957 430.47534609886634 77.186730086241425 -633.98240277085472 -3057.1444567493559 -303.4613153029494 7988.5022316261575 1940.2909516759373 4054.4655492818583 326.91955933802956
leaf_weight=5038 95 15984 20 22 24 2036 229 53 30 3776 22 658 20 4826 87 20 59 88 22 54 5678 456 16163 10200 97 22471 27 1238 106 9831
leaf_count=5038 95 15984 20 22 24 2036 229 53 30 3776 22 658 20 4826 87 20 59 88 22 54 5678 456 16163 10200 97 22471 27 1238 106 9831
internal_value=0 -172.438 1424.57 6489.15 5685.73 1276.48 114.714 4232.32 2441.22 -497.483 13237.1 1903.85 -349.289 434.302 3647.1 8305.25 -33.0036 880.221 921.04 -916.663 903.945 9.42957 87.3481 -751.322 -984.402 -353.633 4670 1692.99 2107.03 297.33
internal_weight=0 88694 10736 305 285 10431 47092 239 166 41602 46 4038 26267 14886 144 73 32206 6393 6251 142 6229 551 16222 15335 5135 26247 114 3380 1344 10060
internal_count=99430 88694 10736 305 285 10431 47092 239 166 41602 46 4038 26267 14886 144 73 32206 6393 6251 142 6229 551 16222 15335 5135 26247 114 3380 1344 10060
is_linear=0
shrinkage=0.1


Tree=18
num_leaves=31
num_cat=0
split_feature=34 34 1 12 6 5 2 7 21 5 20 27 18 7 37 27 37 7 1 6 30 6 10 34 33 27 17 5 32 1
split_gain=1.98336e+12 7.66791e+11 4.5541e+11 3.10976e+11 2.95366e+11 2.849e+11 2.26514e+11 1.18244e+11 1.14177e+11 9.9658e+10 1.01021e+11 9.01995e+10 8.87309e+10 7.13587e+10 9.11772e+10 6.76038e+10 5.12823e+10 5.12205e+10 4.84866e+10 4.79841e+10 4.60878e+10 4.44967e+10 4.44776e+10 4.4315e+10 3.98472e+10 3.70558e+10 5.08621e+10 4.64725e+10 3.69221e+10 3.60369e+10
threshold=73714.285714285725 200807.69230769234 40500.000000000007 590500.00000000012 126500.00000000001 546500.00000000012 15500.000000000002 20500.000000000004 385500.00000000006 1.0000000180025095e-35 164500.00000000003 63500.000000000007 55500.000000000007 97500.000000000015 20833.333333333339 181500.00000000003 122166.66666666667 10500.000000000002 161500.00000000003 210500.00000000003 504500.00000000006 37500.000000000007 154500.00000000003 55401.098901098907 99500.000000000015 65500.000000000007 156500.00000000003 230500.00000000003 58500.000000000007 171500.00000000003
decision_type=2 2 2 10 10 10 10 10 10 8 8 10 10 8 8 10 10 8 2 10 8 10 10 2 10 8 10 10 10 2
left_child=2 4 7 5 13 8 -5 12 9 -3 -11 16 -1 22 -15 17 23 -6 -16 -19 -10 24 25 -4 -9 26 -2 -27 -14 -25
right_child=1 3 11 6 15 -7 -8 21 20 10 -12 -13 28 14 18 -17 -18 19 -20 -21 -22 -23 -24 29 -26 27 -28 -29 -30 -31
leaf_value=-657.7915071049481 -85.14694172247674 -4219.3772753906251 -158.29002829324941 19213.201014775816 113.3374119995506 14349.002931722007 5708.4378980848523 -461.32352295734182 4994.5789354112421 -3956.0561718750005 3312.5624559722551 313.36311836169978 -1410.4527931330265 7543.2272192382807 712.49439599713037 2539.5295377344119 4987.4557183837896 1358.4794595857379 1809.4052499389647 2978.9091214194818 10583.613878906252 -147.47422457591398 -1155.4504178378691 67.180379427271561 2870.4208018369145 452.04374903287544 -3890.6058785103469 4395.459230550131 -3213.9743861853362 3596.4414428710938
leaf_weight=14789 692 20 23515 23 314 24 27 12513 36 20 435 7182 359 20 6412 532 20 3438 430 193 25 7788 187 12354 36 7784 37 30 166 29
leaf_count=14789 692 20 23515 23 314 24 27 12513 36 20 435 7182 359 20 6412 532 20 3438 430 193 25 7788 187 12354 36 7784 37 30 166 29
internal_value=0 871.576 -228.865 4364.36 765.412 3689.69 11920.6 -493.273 3212.41 2689.38 2993.06 -10.1537 -703.144 559.842 801.14 1481.35 -74.8426 1338.65 781.432 1444.61 7285.17 -335.238 370.175 -77.663 -451.766 403.57 -278.291 467.184 -1980.71 75.4456
internal_weight=0 20679 78751 610 20069 560 50 35651 536 475 455 43100 15314 15592 6862 4477 35918 3945 6842 3631 61 20337 8730 35898 12549 8543 729 7814 525 12383
internal_count=99430 20679 78751 610 20069 560 50 35651 536 475 455 43100 15314 15592 6862 4477 35918 3945 6842 3631 61 20337 8730 35898 12549 8543 729 7814 525 12383
is_linear=0
shrinkage=0.1


Tree=19
num_leaves=31
num_cat=0
split_feature=34 34 34 6 10 1 6 3 1 9 6 5 3 10 1 33 15 7 6 7 10 11 16 6 6 11 4 6 8 1
split_gain=1.61714e+12 5.51401e+11 5.26023e+11 1.73653e+11 1.62569e+11 2.02155e+11 1.4725e+11 1.28026e+11 1.10196e+11 7.99844e+10 6.43058e+10 5.5577e+10 4.62882e+10 4.22381e+10 5.44132e+10 4.09603e+10 1.02663e+11 3.97301e+10 3.81636e+10 3.7828e+10 3.68036e+10 3.61256e+10 6.50123e+10 3.59421e+10 3.53856e+10 3.45489e+10 3.08915e+10 3.01992e+10 4.72324e+10 4.14453e+10
threshold=94730.769230769234 45978.021978021985 252285.71428571432 136500.00000000003 156500.00000000003 672500.00000000012 69500.000000000015 -114499.99999999999 20500.000000000004 410000.00000000006 223500.00000000003 236500.00000000003 227500.00000000003 185500.00000000003 78500.000000000015 97500.000000000015 31500.000000000004 81500.000000000015 35500.000000000007 10500.000000000002 210500.00000000003 203500.00000000003 76500.000000000015 86500.000000000015 206500.00000000003 489000.00000000006 532500.00000000012 48500.000000000007 107500.00000000001 171500.00000000003
decision_type=2 2 2 8 8 2 10 10 2 10 10 10 10 10 2 10 10 10 10 8 8 10 8 10 10 8 10 8 10 2
left_child=1 8 3 13 -4 9 27 -7 15 10 -6 19 18 21 -15 -1 -17 -8 -10 20 -5 -2 -23 -24 -21 -12 -11 28 29 -3
right_child=2 6 4 11 5 7 17 -9 12 26 25 -13 -14 14 -16 16 -18 -19 -20 24 -22 22 23 -25 -26 -27 -28 -29 -30 -31
leaf_value=-626.86108830667661 727.2879490448081 -165.37009834487037 13967.833105468751 617.40724389027741 -2772.9184156334923 16726.851232910158 240.84878684766977 6084.7816274789666 -395.09832574514149 4835.4264868164064 3778.5321206899789 3322.4845532047048 4528.3228115844731 -5663.4622528076179 -165.32287101745607 -1980.6623189290365 7720.2713879394541 582.13847839514449 -166.45432349106588 1426.7715066768485 -3606.3841640625005 7681.262513427735 -1605.1276264735632 2609.1385092539331 2403.2695320457933 -297.00773737980774 9247.0901541573676 39.40838168647285 -1526.4758345301011 2278.9873647635322
leaf_weight=14508 6072 7657 20 118 23 20 9371 26 15045 65 104 170 20 20 180 24 20 5363 14181 3307 25 20 28 73 418 26 21 22180 255 70
leaf_count=14508 6072 7657 20 118 23 20 9371 26 15045 65 104 170 20 20 180 24 20 5363 14181 3307 25 20 28 73 418 26 21 22180 255 70
internal_value=0 -140.31 1159.16 1039.46 5252.65 4641.06 105.959 10711.8 -392.753 3472.63 2101.1 1552.85 -280.865 715.191 -715.137 -617.622 2428.85 365.074 -284.156 1475.08 -121.018 761.382 2472.3 1440.83 1536.35 2963.42 5912.69 -20.6181 -187.417 -143.226
internal_weight=0 88694 10736 10431 305 285 44896 46 43798 239 153 4038 29246 6393 200 14552 44 14734 29226 3868 143 6193 121 101 3725 130 86 30162 7982 7727
internal_count=99430 88694 10736 10431 305 285 44896 46 43798 239 153 4038 29246 6393 200 14552 44 14734 29226 3868 143 6193 121 101 3725 130 86 30162 7982 7727
is_linear=0
shrinkage=0.1


Tree=20
num_leaves=31
num_cat=0
split_feature=6 5 7 18 5 6 7 22 6 3 13 13 7 35 6 16 13 36 12 12 36 36 12 20 19 10 16 3 24 37
split_gain=1.21291e+12 4.41213e+11 2.76696e+11 3.18351e+11 2.13791e+11 1.8934e+11 9.74148e+10 8.16919e+10 7.94944e+10 8.80563e+10 7.66497e+10 6.57523e+10 6.60343e+10 6.36456e+10 5.89643e+10 5.63144e+10 4.69111e+10 4.87658e+10 4.62557e+10 4.56422e+10 4.31975e+10 6.82583e+10 4.24631e+10 4.14665e+10 4.21322e+10 3.96681e+10 3.53484e+10 3.47616e+10 3.39691e+10 3.40247e+10
threshold=76500.000000000015 230500.00000000003 40500.000000000007 240500.00000000003 115500.00000000001 484500.00000000006 50500.000000000007 800500.00000000012 14500.000000000002 85500.000000000015 774000.00000000012 61500.000000000007 193500.00000000003 42216.666666666679 154500.00000000003 18500.000000000004 6500.0000000000009 16500.000000000004 117500.00000000001 512500.00000000006 81642.857142857145 69500.000000000015 140500.00000000003 250500.00000000003 104500.00000000001 115500.00000000001 171500.00000000003 89500.000000000015 197500.00000000003 18500.000000000004
decision_type=10 10 8 10 10 10 8 10 10 10 8 10 10 10 10 10 10 10 8 10 10 10 10 10 8 8 8 10 10 10
left_child=2 4 3 8 6 18 22 10 13 -10 19 -4 28 20 -6 -14 -15 -18 -3 -7 21 -1 -2 24 -16 -20 -24 -27 29 -13
right_child=1 5 11 -5 14 7 -8 -9 9 -11 -12 12 15 16 23 -17 17 -19 25 -21 -22 -23 26 -25 -26 27 -28 -29 -30 -31
leaf_value=-613.38066445957122 -159.2842335543545 -1719.5676025390626 -90.794892376663711 11907.128894624257 910.33071898815433 6653.7678440856944 519.35368590423548 13268.111077008929 -317.7917678893316 6160.5842290969122 9900.6254630796375 2018.2445139875317 7802.4402514648436 -3709.0828979492189 -814.40308153307114 1355.3186004638674 -4518.01025390625 -394.89145815387462 7221.4052873883938 -102.13693603515625 -4465.1475383890092 4963.864722789418 -1117.8665671523738 4414.1087732651658 1620.2102866313235 3216.8508230063699 -5870.0082540760877 560.22553887764616 -2993.2760386747473 156.67367830505498
leaf_weight=8622 1799 22 34856 21 3457 20 12436 21 23305 21 31 99 20 112 74 42 35 159 21 20 29 22 49 51 1802 275 23 60 34 11892
leaf_count=8622 1799 22 34856 21 3457 20 12436 21 23305 21 31 99 20 112 74 42 35 159 21 20 29 22 49 51 1802 275 23 60 34 11892
internal_value=0 692.549 -176.14 -401.284 620.275 3720.53 418.141 7788.94 -409.285 -311.959 6168.34 -21.1017 179.877 -662.121 1157.41 3435.04 -2079.53 -1138.75 2730.33 3275.82 -612.113 -599.186 -254.59 1600.66 1524.18 3005.33 -2635.91 2741.04 163.093 172.043
internal_weight=0 20161 79269 32326 19691 470 14307 92 32305 23326 71 46943 12087 8979 5384 62 306 194 378 40 8673 8644 1871 1927 1876 356 72 335 12025 11991
internal_count=99430 20161 79269 32326 19691 470 14307 92 32305 23326 71 46943 12087 8979 5384 62 306 194 378 40 8673 8644 1871 1927 1876 356 72 335 12025 11991
is_linear=0
shrinkage=0.1


Tree=21
num_leaves=31
num_cat=0
split_feature=37 13 27 12 19 37 13 27 20 4 32 4 3 10 29 16 12 10 13 3 4 37 35 4 18 3 22 37 19 21
split_gain=9.09559e+11 3.43607e+11 2.98847e+11 1.97639e+11 1.41463e+11 1.31744e+11 8.10275e+10 7.0524e+10 5.5127e+10 5.29627e+10 5.25647e+10 4.88546e+10 4.80799e+10 4.7144e+10 4.66032e+10 4.85855e+10 7.02541e+10 4.44715e+10 4.32644e+10 4.37348e+10 4.08083e+10 4.06944e+10 3.88039e+10 7.21186e+10 3.80601e+10 4.62891e+10 3.78294e+10 5.23252e+10 3.58275e+10 3.55427e+10
threshold=103166.66666666667 57500.000000000007 607000.00000000012 315500.00000000006 33500.000000000007 220833.33333333334 138500.00000000003 73500.000000000015 1.0000000180025095e-35 114500.00000000001 273500.00000000006 153500.00000000003 193500.00000000003 279500.00000000006 107500.00000000001 115500.00000000001 164500.00000000003 102500.00000000001 294000.00000000006 100500.00000000001 508000.00000000006 38166.666666666679 79383.333333333358 48500.000000000007 250500.00000000003 256500.00000000003 76500.000000000015 1.0000000180025095e-35 32500.000000000004 131500.00000000003
decision_type=10 10 10 10 8 10 10 10 8 10 10 10 8 10 8 8 8 10 8 10 10 8 8 10 10 10 10 10 10 10
left_child=1 3 5 4 17 6 8 -3 11 21 24 -2 -11 22 -7 -16 -17 -1 -18 20 -20 26 28 -24 25 -8 -6 -28 -10 -26
right_child=2 7 -4 -5 9 14 10 -9 13 12 -12 -13 -14 -15 15 16 18 -19 19 -21 -22 -23 23 -25 29 -27 27 -29 -30 -31
leaf_value=-437.87281966964701 -275.08378587202594 108.53569140495796 9952.6900149783578 9261.5313539331601 -273.03148936585939 -1007.072074620864 1264.5336592300614 470.31941306395038 -4867.5096879438925 -50.50972975352623 6281.1102201915928 -4517.257989327567 1629.4890696129432 -3271.7669966634116 6791.5267098262402 -3224.4030993652345 1889.9201451667004 -2184.1341190208382 3944.3914729769272 436.69488546437236 8367.2921445312513 -80.893000318734423 5138.9535604940884 707.87804994837336 7279.3708984375007 -1935.7884433912195 -5303.8244829963242 -879.37220570068371 -216.41944562997392 1672.0878483698918
leaf_weight=18412 121 18028 37 22 12246 34 2583 7685 22 358 21 35 325 30 29 20 214 147 126 29 25 33480 37 5046 20 46 34 125 67 26
leaf_count=18412 121 18028 37 22 12246 34 2583 7685 22 358 21 35 325 30 29 20 214 147 126 29 25 33480 37 5046 20 46 34 125 67 26
internal_value=0 -92.8764 984.936 -215.046 -218.247 946.042 850.407 216.664 625.414 -125.206 1297.56 -1226.85 748.904 680.96 2560.81 2834.65 2557.47 -451.704 2850.97 3993.55 4676.66 -138.217 703.888 740.133 1258.43 1208.54 -292.93 -1825.48 -1366.13 4110.04
internal_weight=0 90862 8568 65149 65127 8531 8054 25713 5358 46568 2696 156 683 5202 477 443 414 18559 394 180 151 45885 5172 5083 2675 2629 12405 159 89 46
internal_count=99430 90862 8568 65149 65127 8531 8054 25713 5358 46568 2696 156 683 5202 477 443 414 18559 394 180 151 45885 5172 5083 2675 2629 12405 159 89 46
is_linear=0
shrinkage=0.1


Tree=22
num_leaves=31
num_cat=0
split_feature=34 34 14 34 7 27 7 37 6 4 3 6 20 36 4 6 37 34 3 16 30 3 32 30 36 36 2 3 32 37
split_gain=9.12589e+11 3.67092e+11 2.79165e+11 2.02632e+11 1.69595e+11 1.38711e+11 1.13845e+11 8.44467e+10 7.11502e+10 8.49198e+10 6.79388e+10 6.24188e+10 5.07231e+10 5.43234e+10 5.14343e+10 4.9449e+10 4.16849e+10 4.15828e+10 3.73677e+10 3.64714e+10 5.68422e+10 3.57722e+10 5.48049e+10 3.5648e+10 3.41079e+10 5.23933e+10 3.32215e+10 5.51785e+10 3.2862e+10 3.22379e+10
threshold=70543.956043956059 200807.69230769234 1.0000000180025095e-35 35868.131868131873 109500.00000000001 607000.00000000012 157500.00000000003 24833.333333333339 655500.00000000012 575500.00000000012 248500.00000000003 133500.00000000003 81500.000000000015 13642.857142857143 199500.00000000003 48500.000000000007 19166.666666666668 9456.0439560439572 53500.000000000007 15500.000000000002 8500.0000000000018 -118499.99999999999 100500.00000000001 156500.00000000003 78785.714285714304 75357.142857142884 -166499.99999999997 271500.00000000006 482500.00000000006 64833.333333333336
decision_type=2 2 8 2 8 10 8 8 8 10 10 10 10 10 10 8 8 2 10 8 8 8 10 10 10 10 10 10 10 10
left_child=3 4 -3 17 12 6 -4 -6 10 -10 28 19 14 -14 26 24 -17 -1 -16 20 -9 22 -13 -24 25 -5 27 -2 -8 -22
right_child=1 2 5 15 7 -7 8 11 9 -11 -12 21 13 -15 18 16 -18 -19 -20 -21 29 -23 23 -25 -26 -27 -28 -29 -30 -31
leaf_value=-763.86304496528089 6400.5014870383529 14028.08547446511 -5053.5247913178946 -168.05693770226139 7174.5358933221723 8659.7464699009488 2175.3003611957588 6136.4450548895475 2367.9847891971981 10504.587860903534 -2800.4656581737381 1313.4184465513126 -4721.4106982421872 498.37498015501217 -518.63961585998538 3644.0476833343509 32.847019902867764 -345.14843479372303 -5103.3245079040535 574.38306041569524 3972.2251342773438 1112.9660182818443 8214.7573280334473 2764.3743675231935 -2982.1631813226745 4829.5633584158768 113.43700157642917 -765.84847993396579 6226.133761160715 222.19802055358889
leaf_weight=2623 22 22 21 19392 21 35 432 29 29 23 27 91 20 6431 40 32 29251 24766 32 5158 31 2873 24 24 43 21 7787 21 21 88
leaf_count=2623 22 22 21 19392 21 35 432 29 29 23 27 91 20 6431 40 32 29251 24766 32 5158 31 2873 24 24 43 21 7787 21 21 88
internal_value=0 547.589 2968.41 -167.611 482.513 2554.61 2168.21 841.174 2453.28 5966.87 2072.64 825.185 274.133 482.192 104.279 -45.3098 36.7933 -385.248 -2556.28 618.793 2166.55 1188.77 2755.54 5489.57 -168.882 -162.651 128.744 2900.66 2363.09 1199.1
internal_weight=0 23302 610 76128 22692 588 553 8339 532 52 480 8318 14353 6451 7902 48739 29283 27389 72 5306 148 3012 139 48 19456 19413 7830 43 453 119
internal_count=99430 23302 610 76128 22692 588 553 8339 532 52 480 8318 14353 6451 7902 48739 29283 27389 72 5306 148 3012 139 48 19456 19413 7830 43 453 119
is_linear=0
shrinkage=0.1


Tree=23
num_leaves=31
num_cat=0
split_feature=34 7 15 21 4 2 34 6 28 6 6 11 24 32 4 28 35 36 2 13 2 13 11 35 19 7 13 10 13 11
split_gain=7.49999e+11 2.88867e+11 2.53032e+11 2.36355e+11 1.51187e+11 1.18247e+11 1.02813e+11 7.67205e+10 7.21211e+10 6.74988e+10 6.21571e+10 4.86524e+10 4.67722e+10 4.53349e+10 4.37719e+10 4.74003e+10 4.47662e+10 4.25454e+10 4.23708e+10 3.9284e+10 4.05667e+10 3.65923e+10 3.4337e+10 3.38789e+10 4.67659e+10 3.43923e+10 5.91278e+10 4.52357e+10 4.79236e+10 3.16647e+10
threshold=99912.087912087925 55500.000000000007 449500.00000000006 967000.00000000012 452500.00000000006 15500.000000000002 32214.285714285721 136500.00000000003 867500.00000000012 76500.000000000015 582500.00000000012 474500.00000000006 199500.00000000003 171500.00000000003 9500.0000000000018 13500.000000000002 67383.333333333358 105071.42857142859 -241499.99999999997 185500.00000000003 -149499.99999999997 14500.000000000002 71500.000000000015 95350.000000000015 99500.000000000015 83500.000000000015 38500.000000000007 199500.00000000003 456500.00000000006 170500.00000000003
decision_type=2 10 10 8 10 10 2 8 8 10 10 10 10 8 10 8 10 10 8 10 10 10 10 8 10 8 8 8 8 10
left_child=1 6 4 8 7 -6 21 12 10 14 11 -4 23 -14 15 16 -3 18 -8 -9 -21 -1 -22 24 -2 26 -25 28 -28 -20
right_child=2 9 3 -5 5 -7 17 19 -10 -11 -12 -13 13 -15 -16 -17 -18 -19 29 20 22 -23 -24 25 -26 -27 27 -29 -30 -31
leaf_value=-516.26661212230863 560.92452305385041 1458.9207963076506 5837.3437436617342 14584.954369055708 11865.794927687872 2515.6249365555614 4380.2205321539022 916.95099273950768 -1209.6932617187501 383.99360028675306 9662.6476513671878 -723.03988037109377 748.34034661761791 -2946.1161178588868 28.883488488578863 314.65571955043129 6085.0943741508163 -3649.3840540268848 -116.51009229779287 5711.0707804361982 -2268.7106678838313 -261.48061402228626 1644.0660723041274 -4882.5175279889791 6892.1981347656256 597.5120774953557 -39.091368865119087 -3864.9816074916293 5068.9162362766265 2242.2540679663944
leaf_weight=10874 28 231 26 23 21 38 21 3106 26 9480 20 20 59 76 19899 821 23 34 37014 24 23 11704 902 28 20 4559 225 28 20 57
leaf_count=10874 28 231 26 23 21 38 21 3106 26 9480 20 20 59 76 19899 821 23 34 37014 24 23 11704 902 28 20 4559 225 28 20 57
internal_value=0 -88.0757 856.42 5517.96 797.878 5843.65 -215.916 765.156 3251.21 162.55 5008.53 2985 504.761 -1331.5 62.4608 684 1877.83 -113.581 -110.339 1089 1652.09 -384.19 1546.78 555.269 3198.96 529.159 -506.137 -57.2774 377.889 -112.883
internal_weight=0 90158 9272 115 9157 59 59704 9098 92 30454 66 46 5043 135 20974 1075 254 37126 37092 4055 949 22578 925 4908 48 4860 301 273 245 37071
internal_count=99430 90158 9272 115 9157 59 59704 9098 92 30454 66 46 5043 135 20974 1075 254 37126 37092 4055 949 22578 925 4908 48 4860 301 273 245 37071
is_linear=0
shrinkage=0.1


Tree=24
num_leaves=31
num_cat=0
split_feature=1 18 4 34 1 15 27 2 13 11 2 19 26 34 27 9 24 13 19 9 36 1 36 34 4 32 13 36 27 27
split_gain=6.11524e+11 2.45218e+11 2.10151e+11 1.91496e+11 1.07474e+11 9.92486e+10 1.02367e+11 6.98699e+10 5.99774e+10 5.46327e+10 5.22039e+10 5.07316e+10 4.5135e+10 4.37663e+10 4.24623e+10 3.97648e+10 5.26409e+10 3.81194e+10 4.05231e+10 3.75274e+10 3.71127e+10 3.38656e+10 3.7956e+10 3.75908e+10 3.34699e+10 3.29217e+10 3.16667e+10 3.09313e+10 3.09416e+10 3.07964e+10
threshold=90500.000000000015 286500.00000000006 452500.00000000006 45186.813186813197 155500.00000000003 44500.000000000007 504500.00000000006 -241499.99999999997 66500.000000000015 22500.000000000004 -149499.99999999997 206500.00000000003 720000.00000000012 126521.97802197804 114500.00000000001 201500.00000000003 167500.00000000003 227500.00000000003 286500.00000000006 168500.00000000003 27928.571428571431 4500.0000000000009 35214.285714285717 44258.241758241762 575500.00000000012 128500.00000000001 85500.000000000015 16071.428571428574 103500.00000000001 29500.000000000004
decision_type=2 10 10 2 2 10 10 8 10 10 8 10 10 2 10 10 8 10 10 10 8 2 10 2 10 10 8 10 10 8
left_child=1 3 4 9 14 -4 24 -5 25 10 -1 15 -8 -13 20 27 -17 18 29 -19 -2 22 23 -12 -7 -9 -22 -10 -29 -6
right_child=2 -3 5 7 17 6 12 8 11 -11 21 13 -14 -15 -16 16 -18 19 -20 -21 26 -23 -24 -25 -26 -27 -28 28 -30 -31
leaf_value=4723.099790039063 2316.721332705918 8651.0141593933113 9673.9622167968755 -5466.7031738281257 -985.77350612331088 2092.5444580078124 10189.457685546877 -25.417138347009164 -3442.3089801290766 -153.91738613767279 -611.4731731324357 889.27721301663314 3757.211710611979 6721.254725230825 809.6787783445003 -264.03969116210936 -6547.4073059082039 5106.3072874370373 -3191.3607660708221 1749.8923510735124 0.59157719851329305 -333.43990335674778 -1690.5394661097694 3451.0864905315898 -3062.9394659423833 -1568.0070949636774 426.13864676227195 187.63388287870509 806.28407779881036 1084.1468322810231
leaf_weight=20 93 32 30 23 74 34 20 29622 23 23252 2341 31 24 22 2328 40 20 38 23 270 2417 16062 348 23 20 139 6324 12366 865 2506
leaf_count=20 93 32 30 23 74 34 20 29622 23 23252 2341 31 24 22 2328 40 20 38 23 270 2417 16062 348 23 20 139 6324 12366 865 2506
internal_value=0 -101.231 607.55 -104.518 570.863 4641.16 3100.51 43.4723 46.4109 -256.398 -383.188 222.374 6680.96 3310.1 429.736 210.082 -2358.5 1112 987.523 2164 329.611 -388.628 -715.484 -571.947 183.106 -32.6219 308.469 221.71 228.079 1024.78
internal_weight=0 85229 14201 85197 14073 128 98 43151 43128 42046 18794 13367 44 53 11162 13314 60 2911 2603 308 8834 18774 2712 2364 54 29761 8741 13254 13231 2580
internal_count=99430 85229 14201 85197 14073 128 98 43151 43128 42046 18794 13367 44 53 11162 13314 60 2911 2603 308 8834 18774 2712 2364 54 29761 8741 13254 13231 2580
is_linear=0
shrinkage=0.1


Tree=25
num_leaves=31
num_cat=0
split_feature=34 15 1 1 5 1 20 20 6 36 10 7 37 9 37 20 24 7 3 4 34 19 9 24 30 10 17 5 14 15
split_gain=4.96602e+11 2.11496e+11 1.89808e+11 1.73838e+11 1.73577e+11 1.14069e+11 7.05838e+10 6.52993e+10 5.68747e+10 5.5338e+10 5.04206e+10 4.60714e+10 6.26009e+10 4.34604e+10 3.75082e+10 3.41517e+10 3.28754e+10 2.98966e+10 2.9877e+10 4.56234e+10 4.54818e+10 3.30441e+10 3.21465e+10 3.16333e+10 4.0653e+10 2.93682e+10 2.90051e+10 3.9252e+10 2.8844e+10 2.8178e+10
threshold=68505.494505494527 449500.00000000006 259500.00000000003 155500.00000000003 546500.00000000012 40500.000000000007 720000.00000000012 99500.000000000015 10500.000000000002 64357.142857142862 236500.00000000003 143500.00000000003 52833.333333333336 532500.00000000012 131500.00000000003 51500.000000000007 137500.00000000003 134500.00000000003 81500.000000000015 147500.00000000003 135483.51648351652 37500.000000000007 61500.000000000007 40500.000000000007 74500.000000000015 83500.000000000015 219500.00000000003 215500.00000000003 47500.000000000007 142500.00000000003
decision_type=2 10 2 2 10 2 10 10 10 10 10 8 8 10 10 8 8 10 10 8 2 8 10 8 8 10 10 10 10 10
left_child=5 3 -3 7 11 8 13 10 9 17 18 26 -13 -4 -7 -14 -12 28 22 20 21 -20 -2 24 -23 -10 27 -5 -1 -28
right_child=1 2 6 4 -6 14 -8 -9 25 -11 16 12 15 -15 -16 -17 -18 -19 19 -21 -22 23 -24 -25 -26 -27 29 -29 -30 -31
leaf_value=-428.89589056154722 483.39071084649868 13510.333008766174 3039.8145655581829 385.33031120931605 10388.973125 -13.364541659461333 6636.351748275757 564.18825594017926 -176.66756038490075 -3484.4568341864915 345.36841285342263 5750.6746715914824 -2126.4038330078124 -2266.0768066406249 4214.0033028738844 1273.2720619985384 -4633.2878826565211 3400.0343261718754 -2832.0123926040978 -2458.4206875801087 4565.0970996093747 5544.4600558194252 134.30716999414099 -292.75366178827255 -115.00970662434895 -1217.2694830678674 300.69651766690339 4138.7287488213906 -1282.8127654699181 -4885.5501708984375
leaf_weight=8055 3390 20 38 710 20 39164 32 5676 26653 61 21 31 30 26 21 1964 36 20 47 96 20 22 11892 594 30 274 22 29 416 20
leaf_count=8055 3390 20 38 710 20 39164 32 5676 26653 61 21 31 30 26 21 1964 36 20 47 96 20 22 11892 594 30 274 22 29 416 20
internal_value=0 388.037 4647.97 367.99 1105.97 -128.712 2801.65 272.429 -258.61 -483.274 169.876 1039.81 1291.45 884.296 -11.099 1222.12 -2799.05 -461.713 180.393 -411.84 -136.284 -271.966 211.744 -85.7087 2279.38 -187.256 387.339 532.622 -470.831 -2168.94
internal_weight=0 24766 116 24650 2826 74664 96 21824 35479 8552 16148 2806 2025 64 39185 1994 57 8491 16091 809 713 693 15282 646 52 26927 781 739 8471 42
internal_count=99430 24766 116 24650 2826 74664 96 21824 35479 8552 16148 2806 2025 64 39185 1994 57 8491 16091 809 713 693 15282 646 52 26927 781 739 8471 42
is_linear=0
shrinkage=0.1


Tree=26
num_leaves=31
num_cat=0
split_feature=1 18 7 4 7 2 13 1 20 25 27 4 20 4 18 34 26 16 27 13 27 5 35 20 30 27 4 19 20 22
split_gain=4.11429e+11 1.91493e+11 1.58391e+11 1.43457e+11 9.10849e+10 8.07549e+10 8.02171e+10 6.89392e+10 8.93834e+10 6.83013e+10 5.49152e+10 5.44325e+10 5.4408e+10 7.87673e+10 5.78414e+10 4.70994e+10 4.36402e+10 3.95121e+10 3.96197e+10 3.8381e+10 3.82659e+10 3.37265e+10 3.04626e+10 2.76372e+10 2.74306e+10 2.7236e+10 3.66658e+10 2.70234e+10 2.6554e+10 2.65534e+10
threshold=90500.000000000015 286500.00000000006 49500.000000000007 452500.00000000006 142500.00000000003 -149499.99999999997 967000.00000000012 12500.000000000002 55500.000000000007 855500.00000000012 504500.00000000006 243500.00000000003 135500.00000000003 33500.000000000007 25500.000000000004 122829.67032967033 167500.00000000003 264500.00000000006 112500.00000000001 258500.00000000003 65500.000000000007 230500.00000000003 132150.00000000003 219500.00000000003 8500.0000000000018 93500.000000000015 200500.00000000003 200500.00000000003 79500.000000000015 116500.00000000001
decision_type=2 10 10 10 8 10 8 2 10 8 8 10 10 10 10 2 10 10 10 10 10 10 10 10 8 10 10 10 8 10
left_child=1 2 7 4 17 -5 9 8 15 10 -7 12 20 -14 -15 29 -10 18 24 -6 -4 -9 -22 -20 -2 26 -21 -27 -26 -1
right_child=3 -3 11 5 19 6 -8 21 16 -11 -12 -13 13 14 -16 -17 -18 -19 23 25 22 -23 -24 -25 28 27 -28 -29 -30 -31
leaf_value=-342.23398453222376 1253.3302151811804 7651.242219161988 5.2271724896455529 9344.4091730291202 803.59411989884882 745.05368923611115 8391.1591601562504 -146.7666429503661 -1457.2216854897451 -2921.0135591947119 6920.4536458333332 -5012.1885960896816 5729.9373204549156 5075.7690421795023 402.91635436762391 -4616.4059372535121 -5504.8850795200897 -2913.6088647942797 655.29062794551521 7501.5476623898467 254.73297176443216 3100.96360206604 -3240.8358242187501 3412.8611374313768 -186.64071475927824 -1826.6014056396486 2053.4412278238933 2254.3213929287226 275.63226462576921 -3026.9310197160053
leaf_weight=8561 246 32 25582 22 3946 36 20 40997 547 26 24 21 36 29 306 26 28 38 2052 21 8970 32 25 37 1565 20 30 86 6032 37
leaf_count=8561 246 32 25582 22 3946 36 20 40997 547 26 24 21 36 29 306 26 28 38 2052 21 8970 32 25 37 1565 20 30 86 6032 37
internal_value=0 -83.0337 -85.9387 498.337 468.025 3830.99 2686.69 -199.707 -447.127 1360.08 3215.21 77.4734 80.5317 1285.09 807.432 -366.638 -1654.33 304.82 317.134 864.601 67.6072 -144.234 245.018 704.132 214.056 2397.93 4296.78 1484.34 180.403 -353.787
internal_weight=0 85229 85197 14201 14073 128 106 50228 9199 86 60 34969 34948 371 335 8624 575 9970 9932 4103 34577 41029 8995 2089 7843 157 51 106 7597 8598
internal_count=99430 85229 85197 14201 14073 128 106 50228 9199 86 60 34969 34948 371 335 8624 575 9970 9932 4103 34577 41029 8995 2089 7843 157 51 106 7597 8598
is_linear=0
shrinkage=0.1


Tree=27
num_leaves=31
num_cat=0
split_feature=7 19 13 11 2 13 10 27 10 27 37 0 0 9 3 36 3 29 21 2 9 19 10 37 33 17 7 10 7 37
split_gain=3.07866e+11 1.54465e+11 1.1346e+11 9.45712e+10 6.32396e+10 5.21379e+10 4.9989e+10 4.70999e+10 5.85322e+10 4.66582e+10 4.13617e+10 9.24295e+10 3.17348e+10 5.24391e+10 3.45919e+10 3.03134e+10 2.92824e+10 4.1228e+10 4.00557e+10 3.26314e+10 2.87791e+10 2.87565e+10 3.56388e+10 2.8224e+10 3.29563e+10 2.74012e+10 2.50885e+10 4.93859e+10 2.9355e+10 2.44427e+10
threshold=89500.000000000015 330000.00000000006 39500.000000000007 203500.00000000003 -136499.99999999997 121500.00000000001 279500.00000000006 6500.0000000000009 102500.00000000001 65500.000000000007 131500.00000000003 658910.50000000012 668401.50000000012 34500.000000000007 143500.00000000003 11500.000000000002 -52499.999999999993 467000.00000000006 480500.00000000006 -5499.9999999999991 245500.00000000003 65500.000000000007 124500.00000000001 1.0000000180025095e-35 32500.000000000004 71500.000000000015 286500.00000000006 159500.00000000003 396000.00000000006 155833.33333333334
decision_type=10 10 8 10 10 8 10 8 10 10 10 2 2 10 10 10 10 10 10 10 10 8 8 10 10 10 10 8 10 10
left_child=1 2 7 5 -5 21 9 8 23 20 -9 -12 13 -6 -14 -11 18 19 -15 -18 -4 22 -2 24 -1 -25 -7 -28 -29 -17
right_child=3 -3 6 4 12 26 -8 10 -10 15 11 -13 14 16 -16 29 17 -19 -20 -21 -22 -23 -24 25 -26 -27 27 28 -30 -31
leaf_value=21.83068953804348 -98.743902496484765 8716.7679626464851 -28.926090813051559 5401.7180989583339 6166.347069824219 640.33346535039152 -4990.9096166992194 -200.97814344778422 -3048.2778874662736 -3337.3748011271159 -1131.1043832632211 7911.2703149414074 705.81383367114597 2014.4314036976209 -3373.5744262695316 205.87580216709571 2372.4782113446449 -3235.2353422619049 6822.7757347470242 529.15540065934181 -3823.0692407226561 284.99748127162729 -2177.4320298216076 -526.98116941262958 4884.1933740234372 -2100.6824811738111 -5472.7130019378665 -1894.3486306895384 3344.025689697266 1919.3235357511612
leaf_weight=46 987 20 48179 39 25 5169 20 25260 97 24 26 20 216 99 23 9382 167 21 21 226 20 6574 90 2396 20 116 20 23 20 84
leaf_count=46 987 20 48179 39 25 5169 20 25260 97 24 26 20 216 99 23 9382 167 21 21 226 20 6574 90 2396 20 116 20 23 20 84
internal_value=0 -70.4017 -72.4527 439.806 1469.83 372.886 7.672 -237.705 -636.755 9.40494 -195.522 2800.36 1277.67 1690.02 313.237 212.081 1480.45 1081.77 2855.89 1312.45 -30.5005 206.528 -272.45 -546.019 1495.27 -599.652 616.158 -1367.36 542.105 221.081
internal_weight=0 85710 85690 13720 837 12883 57709 27981 2675 57689 25306 46 798 559 239 9490 534 414 120 393 48199 7651 1077 2578 66 2512 5232 63 43 9466
internal_count=99430 85710 85690 13720 837 12883 57709 27981 2675 57689 25306 46 798 559 239 9490 534 414 120 393 48199 7651 1077 2578 66 2512 5232 63 43 9466
is_linear=0
shrinkage=0.1


Tree=28
num_leaves=31
num_cat=0
split_feature=34 19 8 7 6 37 3 7 3 25 23 35 13 28 27 13 8 23 7 10 27 34 3 6 0 0 13 8 11 36
split_gain=2.83969e+11 1.36027e+11 2.27765e+11 8.36003e+10 6.97766e+10 6.0726e+10 9.23286e+10 5.05197e+10 6.92927e+10 4.97372e+10 4.67467e+10 4.05493e+10 3.91206e+10 3.88887e+10 3.57753e+10 3.7505e+10 5.77684e+10 5.56728e+10 6.826e+10 3.43217e+10 3.19647e+10 3.15679e+10 3.63535e+10 3.61316e+10 3.89982e+10 3.28734e+10 1.09114e+11 3.42689e+10 2.71328e+10 3.92669e+10
threshold=63401.098901098907 236500.00000000003 38500.000000000007 115500.00000000001 26500.000000000004 53833.333333333336 -22499.999999999996 327500.00000000006 85500.000000000015 855500.00000000012 128500.00000000001 35883.333333333336 282500.00000000006 590500.00000000012 102500.00000000001 2500.0000000000005 118500.00000000001 140500.00000000003 31500.000000000004 93500.000000000015 52500.000000000007 115593.4065934066 -262499.99999999994 215500.00000000003 605366.50000000012 406799.50000000006 774000.00000000012 400000.00000000006 29500.000000000004 59071.42857142858
decision_type=2 10 10 8 10 8 10 10 10 8 10 8 10 10 10 8 10 10 10 10 10 2 8 8 2 2 8 8 8 10
left_child=4 3 -3 11 19 6 -5 8 -4 13 -8 -2 14 -9 15 16 17 18 -13 -1 -6 -7 -23 -24 25 27 -27 -25 29 -17
right_child=1 2 7 5 20 21 10 9 -10 -11 -12 12 -14 -15 -16 28 -18 -19 -20 -21 -22 22 23 24 -26 26 -28 -29 -30 -31
leaf_value=-247.3138165787521 4153.2188073730467 11286.844788085938 1387.8614771514642 8222.55695292155 -85.4938886400044 224.38622927445954 380.34666305374316 3156.318492620132 -2965.8085446379905 -487.26277117047994 5426.2980617357343 -3023.3240036737352 -3265.8657329783723 7993.2193448153412 489.95915597250115 2233.4734591397373 -2838.1133259611311 4673.2261696555397 192.6399570886191 -1721.8640786224942 114.24741532634432 -3520.4629185267859 541.11795517452219 3967.6089583333337 1012.6118830597997 433.02001786665488 10638.632410049438 -896.73493695940294 126.49078263999075 -894.38855968951145
leaf_weight=21858 25 25 244 24 37321 3168 91 68 43 28 23 84 34 22 2431 44 106 22 308 159 10202 21 4138 30 541 22 20 28 17843 457
leaf_count=21858 25 25 244 24 37321 3168 91 68 43 28 23 84 34 22 2431 44 106 22 308 159 10202 21 4138 30 541 22 20 28 17843 457
internal_value=0 257.769 2023.53 231.996 -110.796 505.412 2585.2 1451.72 735.569 3193.53 1398.39 128.207 123.49 4338.67 128.901 82.3716 -755.106 -221.776 -496.495 -257.963 -42.6144 469.392 631.095 649.338 1347.96 3162.19 5292.84 1619.31 106.112 -619.686
internal_weight=0 29890 430 29460 69540 8106 138 405 287 118 114 21354 21329 90 21295 18864 520 414 392 22017 47523 7968 4800 4779 641 100 42 58 18344 501
internal_count=99430 29890 430 29460 69540 8106 138 405 287 118 114 21354 21329 90 21295 18864 520 414 392 22017 47523 7968 4800 4779 641 100 42 58 18344 501
is_linear=0
shrinkage=0.1


Tree=29
num_leaves=31
num_cat=0
split_feature=1 18 7 4 10 7 12 36 4 5 4 20 4 3 6 5 32 1 18 18 13 16 4 24 6 10 12 17 34 36
split_gain=2.3438e+11 1.45096e+11 9.57288e+10 8.46565e+10 9.76044e+10 5.62585e+10 5.20825e+10 5.18304e+10 4.36798e+10 4.28528e+10 4.11759e+10 4.07148e+10 7.74069e+10 1.0121e+11 4.05756e+10 3.85746e+10 3.40497e+10 3.37027e+10 5.08468e+10 3.35129e+10 5.2839e+10 3.26114e+10 2.89753e+10 2.82739e+10 2.73965e+10 2.71628e+10 3.10504e+10 2.67901e+10 3.22351e+10 9.84132e+10
threshold=90500.000000000015 286500.00000000006 48500.000000000007 452500.00000000006 953500.00000000012 142500.00000000003 126500.00000000001 105071.42857142859 243500.00000000003 230500.00000000003 532500.00000000012 108500.00000000001 28500.000000000004 109500.00000000001 532500.00000000012 162500.00000000003 162500.00000000003 13500.000000000002 55500.000000000007 21500.000000000004 118500.00000000001 264500.00000000006 1.0000000180025095e-35 46500.000000000007 66500.000000000015 94500.000000000015 100500.00000000001 100500.00000000001 58989.010989010996 55071.42857142858
decision_type=2 10 10 10 8 8 10 10 10 10 10 10 10 10 10 10 8 2 10 10 10 10 10 10 10 10 10 10 2 8
left_child=1 2 6 5 10 21 7 9 11 17 -5 15 13 16 -12 24 -13 18 25 20 -14 -2 -8 -20 -4 26 27 28 -1 -30
right_child=3 -3 8 4 -6 -7 22 -9 -10 -11 14 12 19 -15 -16 -17 -18 -19 23 -21 -22 -23 -24 -25 -26 -27 -28 -29 29 -31
leaf_value=-266.87871869243514 235.76556732955598 6669.7404891967781 -16.811163089036668 3843.6806474401596 8836.3541143002712 664.51416867330772 -4726.8458170572912 -3504.9545505689539 -4500.626779901414 3455.6811497543804 -3649.6287923177088 3703.573245675223 663.35080640839374 9919.6081054687511 1853.8345544763515 -1656.610535425172 -1698.7810083007812 -107.41536571097386 -585.12385366394255 296.4629237239987 6932.8824151611334 -2699.3273474442335 -1300.0444000353918 -2029.7558487695362 168.02665312699867 -2194.164289686415 2915.2424403036798 -2455.3492655806108 5686.6303605363173 -184.58970957031249
leaf_weight=9001 9932 32 22292 47 23 4103 30 46 21 33 21 28 41 20 37 133 20 39089 293 895 20 38 139 252 12524 72 31 55 37 125
leaf_count=9001 9932 32 22292 47 23 4103 30 46 21 33 21 28 41 20 37 133 20 39089 293 895 20 38 139 252 12524 72 31 55 37 125
internal_value=0 -62.671 -65.1997 376.128 2936.24 352.842 -155.862 -149.822 58.7341 -146.672 1643.83 61.3957 682.916 3942.89 -138.799 43.1853 1452.59 -149.1 -314.255 451.035 2718.93 224.579 -1908.35 -1253.1 49.6786 -259.36 -244.298 -254.924 -241.716 1156.37
internal_weight=0 85229 85197 14201 128 14073 49203 49034 35994 48988 105 35973 1024 68 58 34949 48 48955 9866 956 61 9970 169 545 34816 9321 9249 9218 9163 162
internal_count=99430 85229 85197 14201 128 14073 49203 49034 35994 48988 105 35973 1024 68 58 34949 48 48955 9866 956 61 9970 169 545 34816 9321 9249 9218 9163 162
is_linear=0
shrinkage=0.1


Tree=30
num_leaves=31
num_cat=0
split_feature=1 19 1 27 3 30 35 15 14 22 20 10 37 18 33 22 14 27 12 24 14 1 20 27 29 19 15 33 14 24
split_gain=1.91841e+11 1.66447e+11 1.02576e+11 8.75636e+10 5.40335e+10 4.80876e+10 7.18448e+10 1.0233e+11 1.44612e+11 4.33351e+10 4.00758e+10 3.89173e+10 3.65248e+10 3.59582e+10 4.92282e+10 4.56808e+10 3.28554e+10 3.06982e+10 3.11155e+10 2.75699e+10 2.72654e+10 7.16694e+10 3.25757e+10 2.86156e+10 3.90504e+10 3.21657e+10 2.70875e+10 2.657e+10 2.54934e+10 2.50575e+10
threshold=128500.00000000001 376000.00000000006 48500.000000000007 796500.00000000012 376500.00000000006 173500.00000000003 94083.333333333358 106500.00000000001 107500.00000000001 136500.00000000003 79500.000000000015 93500.000000000015 12500.000000000002 43500.000000000007 73500.000000000015 4500.0000000000009 253500.00000000003 49500.000000000007 117500.00000000001 49500.000000000007 694500.00000000012 672500.00000000012 264500.00000000006 80500.000000000015 94500.000000000015 185500.00000000003 217500.00000000003 61500.000000000007 89500.000000000015 22500.000000000004
decision_type=2 10 2 10 10 10 10 10 10 10 10 10 10 10 10 10 10 10 10 10 10 2 10 8 8 10 10 8 10 10
left_child=1 2 4 20 5 6 11 -8 -9 -10 -4 12 13 14 19 -15 -12 18 -14 -1 21 22 23 26 25 28 29 -21 -25 -2
right_child=3 -3 10 -5 -6 -7 7 8 9 -11 16 -13 17 15 -16 -17 -18 -19 -20 27 -22 -23 -24 24 -26 -27 -28 -29 -30 -31
leaf_value=-320.82599705709328 2049.0293737533243 8868.4778831845233 22.810359261866257 7023.1806826636912 -5093.0790987188166 -2445.3852246093752 -946.91589771139206 11245.770405910327 -744.52017089843753 5178.3863356817346 242.01934099402862 -930.4492813247482 -114.86367074649186 1674.2791791579305 3567.2441095525569 -2357.5106631832359 3801.613521399865 148.33491075737911 -1636.0790690782335 362.38250452158405 -2677.188253079928 6544.0120947265632 1921.3362347836983 2589.2241317167736 496.03555598821396 5104.8044404296879 -3721.222699529475 4545.6468306107954 613.99117265822576 -418.43916122690075
leaf_weight=7864 47 21 36649 21 22 90 58 23 30 21 9654 612 33663 34 33 162 26 4840 135 49 26 20 167 105 4485 25 22 22 173 331
leaf_count=7864 47 21 36649 21 22 90 58 23 30 21 9654 612 33663 34 33 162 26 4840 135 49 26 20 167 105 4485 25 22 22 173 331
internal_value=0 -33.3587 -35.3477 578.382 -138.35 -136.062 -131.691 2198.05 4663.02 1694.32 70.6096 -138.177 -127.817 -320.001 -287.085 -1658.12 251.58 -87.2091 -120.94 -303.115 553.323 568.95 546.634 502.383 570.265 1669.01 -310.165 1658.61 1360.03 -111.638
internal_weight=0 94008 93987 5422 47658 47636 47546 132 74 51 46329 47414 46802 8164 7968 196 9680 38638 33798 7935 5401 5375 5355 5188 4788 303 400 71 278 378
internal_count=99430 94008 93987 5422 47658 47636 47546 132 74 51 46329 47414 46802 8164 7968 196 9680 38638 33798 7935 5401 5375 5355 5188 4788 303 400 71 278 378
is_linear=0
shrinkage=0.1


Tree=31
num_leaves=31
num_cat=0
split_feature=34 15 22 1 4 25 13 3 22 1 13 3 23 35 24 17 4 6 16 1 3 30 28 20 10 2 1 18 9 30
split_gain=1.5874e+11 9.32567e+10 1.89629e+11 7.81418e+10 6.84225e+10 5.29902e+10 4.16325e+10 4.08996e+10 4.08987e+10 3.55382e+10 3.26545e+10 3.26247e+10 3.223e+10 2.96655e+10 2.74134e+10 2.55451e+10 2.58564e+10 2.51371e+10 2.80651e+10 2.35442e+10 3.74378e+10 2.93155e+10 2.17808e+10 2.12638e+10 2.86459e+10 2.79519e+10 3.18673e+10 2.76314e+10 3.94941e+10 2.39677e+10
threshold=60115.384615384624 449500.00000000006 990500.00000000012 155500.00000000003 452500.00000000006 855500.00000000012 39500.000000000007 82500.000000000015 561500.00000000012 480500.00000000006 89500.000000000015 51500.000000000007 144500.00000000003 35883.333333333336 171500.00000000003 73500.000000000015 154500.00000000003 250500.00000000003 117500.00000000001 10500.000000000002 227500.00000000003 86500.000000000015 132500.00000000003 98500.000000000015 79500.000000000015 -14499.999999999998 129500.00000000001 245500.00000000003 250500.00000000003 124500.00000000001
decision_type=2 10 8 2 10 8 10 8 10 2 8 10 10 8 10 8 10 10 10 2 10 10 10 10 10 10 2 10 10 10
left_child=6 3 5 10 9 8 19 -6 -3 17 11 13 15 -2 -15 -13 -17 -5 -19 21 -21 -1 -16 27 25 -25 -27 28 29 -12
right_child=1 2 -4 4 7 -7 -8 -9 -10 -11 23 12 -14 14 22 16 -18 18 -20 20 -22 -23 -24 24 -26 26 -28 -29 -30 -31
leaf_value=-300.00250127328377 3912.3652844238286 572.84398093710149 10922.008919270833 552.12663386954955 1835.2791188557942 -3612.7669458007813 3.3927777696686459 7719.4965494791677 5684.4676587975546 -3598.3323083496093 171.9690993965387 167.12248344788185 -2792.2179372687092 68.826962851090869 -636.1587278304562 -612.92720464431761 -3266.8951528695916 3839.284335835775 1029.4018400763073 -123.16123907618214 4003.4944224964488 -2341.9291478116747 -3996.5028137207032 2020.6920302593062 317.28680805330498 230.2721133546662 4266.7365094866072 3857.1296084594724 -3081.1668772747644 -937.0119227883805
leaf_weight=7234 20 49 24 2606 27 20 27251 21 23 20 9425 520 57 15183 62 625 39 48 137 30875 22 71 28 203 4277 285 21 20 38 199
leaf_count=7234 20 49 24 2606 27 20 27251 21 23 20 9425 520 57 15183 62 625 39 48 137 30875 22 71 28 203 4277 285 21 20 38 199
internal_value=0 175.371 3005.91 165.674 665.915 940.834 -91.0358 4409.62 2205.72 601.988 119.542 23.5371 -469.574 63.5522 58.5121 -357.757 -768.808 632.087 1758.45 -158.395 -120.223 -319.849 -1681.6 229.255 401.685 1110.86 507.284 144.02 136.334 149.038
internal_weight=0 33977 116 33861 2859 92 65453 48 72 2811 31002 16534 1241 15293 15273 1184 664 2791 185 38202 30897 7305 90 14468 4786 509 306 9682 9662 9624
internal_count=99430 33977 116 33861 2859 92 65453 48 72 2811 31002 16534 1241 15293 15273 1184 664 2791 185 38202 30897 7305 90 14468 4786 509 306 9682 9662 9624
is_linear=0
shrinkage=0.1


end of trees

feature_importances:
mean_income_all=158
income_3_day_before=79
income_4_day_before=78
money_in=65
income_10_day_before=57
mean_income_last_3_days=53
income_1_day_before=37
income_17_day_before=36
yesterday_growth_of_income_growth=35
income_24_day_before=34
income_2_day_before=27
income_7_day_before=24
mean_income_last_7_days=22
income_9_day_before=20
income_16_day_before=20
yesterday_income_growth=16
income_8_day_before=16
income_6_day_before=15
income_15_day_before=14
income_13_day_before=13
income_20_day_before=12
income_21_day_before=12
mean_income_last_30_days=11
income_12_day_before=10
income_18_day_before=10
TID=9
income_5_day_before=9
income_11_day_before=9
income_19_day_before=9
income_29_day_before=9
income_14_day_before=8
income_27_day_before=8
income_30_day_before=7
income_22_day_before=5
income_25_day_before=5
income_26_day_before=5
income_23_day_before=2
income_28_day_before=1

parameters:
[boosting: gbdt]
[objective: regression]
[metric: l2]
[tree_learner: serial]
[device_type: cpu]
[data: ]
[valid: ]
[num_iterations: 32]
[learning_rate: 0.1]
[num_leaves: 31]
[num_threads: -1]
[deterministic: 0]
[force_col_wise: 0]
[force_row_wise: 0]
[histogram_pool_size: -1]
[max_depth: -1]
[min_data_in_leaf: 20]
[min_sum_hessian_in_leaf: 0.001]
[bagging_fraction: 0.7]
[pos_bagging_fraction: 1]
[neg_bagging_fraction: 1]
[bagging_freq: 0]
[bagging_seed: 3014]
[feature_fraction: 0.7]
[feature_fraction_bynode: 1]
[feature_fraction_seed: 29554]
[extra_trees: 0]
[extra_seed: 19515]
[early_stopping_round: 0]
[first_metric_only: 0]
[max_delta_step: 0]
[lambda_l1: 0]
[lambda_l2: 0]
[linear_lambda: 0]
[min_gain_to_split: 0]
[drop_rate: 0.1]
[max_drop: 50]
[skip_drop: 0.5]
[xgboost_dart_mode: 0]
[uniform_drop: 0]
[drop_seed: 12050]
[top_rate: 0.2]
[other_rate: 0.1]
[min_data_per_group: 100]
[max_cat_threshold: 32]
[cat_l2: 10]
[cat_smooth: 10]
[max_cat_to_onehot: 4]
[top_k: 20]
[monotone_constraints: ]
[monotone_constraints_method: basic]
[monotone_penalty: 0]
[feature_contri: ]
[forcedsplits_filename: ]
[refit_decay_rate: 0.9]
[cegb_tradeoff: 1]
[cegb_penalty_split: 0]
[cegb_penalty_feature_lazy: ]
[cegb_penalty_feature_coupled: ]
[path_smooth: 0]
[interaction_constraints: ]
[verbosity: -1]
[saved_feature_importance_type: 0]
[linear_tree: 0]
[max_bin: 255]
[max_bin_by_feature: ]
[min_data_in_bin: 3]
[bin_construct_sample_cnt: 200000]
[data_random_seed: 126]
[is_enable_sparse: 1]
[enable_bundle: 1]
[use_missing: 1]
[zero_as_missing: 0]
[feature_pre_filter: 1]
[pre_partition: 0]
[two_round: 0]
[header: 0]
[label_column: ]
[weight_column: ]
[group_column: ]
[ignore_column: ]
[categorical_feature: ]
[forcedbins_filename: ]
[precise_float_parser: 0]
[objective_seed: 25204]
[num_class: 1]
[is_unbalance: 0]
[scale_pos_weight: 1]
[sigmoid: 1]
[boost_from_average: 1]
[reg_sqrt: 0]
[alpha: 0.9]
[fair_c: 1]
[poisson_max_delta_step: 0.7]
[tweedie_variance_power: 1.5]
[lambdarank_truncation_level: 30]
[lambdarank_norm: 1]
[label_gain: ]
[eval_at: ]
[multi_error_top_k: 1]
[auc_mu_weights: ]
[num_machines: 1]
[local_listen_port: 12400]
[time_out: 120]
[machine_list_filename: ]
[machines: ]
[gpu_platform_id: -1]
[gpu_device_id: -1]
[gpu_use_dp: 0]
[num_gpu: 1]

end of parameters

pandas_categorical:[]
